/* Model data starts here */
/* The model was generated by the eloquent tinyml wrapper. This is the modified version of the wrapper */

/* Model Information:
    Name: testing_model (written for testing)
    Timestamp: 2023-11-25 08:34:27.184251
*/

#include "modelData.h"

const unsigned char modelData[] = {
  0x1c, 0x00, 0x00, 0x00, 0x54, 0x46, 0x4c, 0x33, 0x14, 0x00, 0x20, 0x00,
  0x1c, 0x00, 0x18, 0x00, 0x14, 0x00, 0x10, 0x00, 0x0c, 0x00, 0x00, 0x00,
  0x08, 0x00, 0x04, 0x00, 0x14, 0x00, 0x00, 0x00, 0x1c, 0x00, 0x00, 0x00,
  0x8c, 0x00, 0x00, 0x00, 0xe4, 0x00, 0x00, 0x00, 0x44, 0x2e, 0x00, 0x00,
  0x54, 0x2e, 0x00, 0x00, 0x10, 0x36, 0x00, 0x00, 0x03, 0x00, 0x00, 0x00,
  0x01, 0x00, 0x00, 0x00, 0x10, 0x00, 0x00, 0x00, 0x00, 0x00, 0x0a, 0x00,
  0x10, 0x00, 0x0c, 0x00, 0x08, 0x00, 0x04, 0x00, 0x0a, 0x00, 0x00, 0x00,
  0x0c, 0x00, 0x00, 0x00, 0x1c, 0x00, 0x00, 0x00, 0x3c, 0x00, 0x00, 0x00,
  0x0f, 0x00, 0x00, 0x00, 0x73, 0x65, 0x72, 0x76, 0x69, 0x6e, 0x67, 0x5f,
  0x64, 0x65, 0x66, 0x61, 0x75, 0x6c, 0x74, 0x00, 0x01, 0x00, 0x00, 0x00,
  0x04, 0x00, 0x00, 0x00, 0x9c, 0xff, 0xff, 0xff, 0x0a, 0x00, 0x00, 0x00,
  0x04, 0x00, 0x00, 0x00, 0x08, 0x00, 0x00, 0x00, 0x63, 0x6f, 0x6e, 0x76,
  0x32, 0x64, 0x5f, 0x32, 0x00, 0x00, 0x00, 0x00, 0x01, 0x00, 0x00, 0x00,
  0x04, 0x00, 0x00, 0x00, 0xae, 0xd1, 0xff, 0xff, 0x04, 0x00, 0x00, 0x00,
  0x03, 0x00, 0x00, 0x00, 0x69, 0x6d, 0x67, 0x00, 0x02, 0x00, 0x00, 0x00,
  0x34, 0x00, 0x00, 0x00, 0x04, 0x00, 0x00, 0x00, 0xdc, 0xff, 0xff, 0xff,
  0x0d, 0x00, 0x00, 0x00, 0x04, 0x00, 0x00, 0x00, 0x13, 0x00, 0x00, 0x00,
  0x43, 0x4f, 0x4e, 0x56, 0x45, 0x52, 0x53, 0x49, 0x4f, 0x4e, 0x5f, 0x4d,
  0x45, 0x54, 0x41, 0x44, 0x41, 0x54, 0x41, 0x00, 0x08, 0x00, 0x0c, 0x00,
  0x08, 0x00, 0x04, 0x00, 0x08, 0x00, 0x00, 0x00, 0x0c, 0x00, 0x00, 0x00,
  0x04, 0x00, 0x00, 0x00, 0x13, 0x00, 0x00, 0x00, 0x6d, 0x69, 0x6e, 0x5f,
  0x72, 0x75, 0x6e, 0x74, 0x69, 0x6d, 0x65, 0x5f, 0x76, 0x65, 0x72, 0x73,
  0x69, 0x6f, 0x6e, 0x00, 0x0e, 0x00, 0x00, 0x00, 0x5c, 0x2d, 0x00, 0x00,
  0x54, 0x2d, 0x00, 0x00, 0x04, 0x2d, 0x00, 0x00, 0xe0, 0x2c, 0x00, 0x00,
  0x10, 0x26, 0x00, 0x00, 0x00, 0x02, 0x00, 0x00, 0xb0, 0x00, 0x00, 0x00,
  0xa8, 0x00, 0x00, 0x00, 0xa0, 0x00, 0x00, 0x00, 0x98, 0x00, 0x00, 0x00,
  0x90, 0x00, 0x00, 0x00, 0x88, 0x00, 0x00, 0x00, 0x68, 0x00, 0x00, 0x00,
  0x04, 0x00, 0x00, 0x00, 0x56, 0xd2, 0xff, 0xff, 0x04, 0x00, 0x00, 0x00,
  0x54, 0x00, 0x00, 0x00, 0x0c, 0x00, 0x00, 0x00, 0x08, 0x00, 0x0e, 0x00,
  0x08, 0x00, 0x04, 0x00, 0x08, 0x00, 0x00, 0x00, 0x10, 0x00, 0x00, 0x00,
  0x24, 0x00, 0x00, 0x00, 0x00, 0x00, 0x06, 0x00, 0x08, 0x00, 0x04, 0x00,
  0x06, 0x00, 0x00, 0x00, 0x04, 0x00, 0x00, 0x00, 0x00, 0x00, 0x00, 0x00,
  0x00, 0x00, 0x0a, 0x00, 0x10, 0x00, 0x0c, 0x00, 0x08, 0x00, 0x04, 0x00,
  0x0a, 0x00, 0x00, 0x00, 0x02, 0x00, 0x00, 0x00, 0x02, 0x00, 0x00, 0x00,
  0x04, 0x00, 0x00, 0x00, 0x06, 0x00, 0x00, 0x00, 0x32, 0x2e, 0x31, 0x33,
  0x2e, 0x30, 0x00, 0x00, 0xb6, 0xd2, 0xff, 0xff, 0x04, 0x00, 0x00, 0x00,
  0x10, 0x00, 0x00, 0x00, 0x31, 0x2e, 0x35, 0x2e, 0x30, 0x00, 0x00, 0x00,
  0x00, 0x00, 0x00, 0x00, 0x00, 0x00, 0x00, 0x00, 0xb8, 0xcb, 0xff, 0xff,
  0xbc, 0xcb, 0xff, 0xff, 0xc0, 0xcb, 0xff, 0xff, 0xc4, 0xcb, 0xff, 0xff,
  0xc8, 0xcb, 0xff, 0xff, 0xe6, 0xd2, 0xff, 0xff, 0x04, 0x00, 0x00, 0x00,
  0x40, 0x01, 0x00, 0x00, 0x6c, 0xff, 0xab, 0x3e, 0x64, 0x1f, 0x86, 0xbd,
  0x88, 0x2f, 0x09, 0xbe, 0x76, 0x71, 0x0e, 0xbe, 0xf8, 0x91, 0x27, 0x3e,
  0x60, 0xc1, 0xc4, 0x3d, 0x8a, 0x6f, 0xbd, 0x3e, 0xbe, 0x01, 0xce, 0x3e,
  0x2b, 0x4a, 0x8e, 0xbe, 0x1e, 0x89, 0xed, 0x3e, 0xce, 0xf2, 0x03, 0xbf,
  0xb0, 0xb4, 0x34, 0x3e, 0xf0, 0x76, 0xea, 0xbd, 0x60, 0x3f, 0x00, 0x3e,
  0xb8, 0xbe, 0x8b, 0x3e, 0xc0, 0xd3, 0xc4, 0x3d, 0x13, 0xaa, 0x8b, 0xbe,
  0x28, 0x91, 0xea, 0x3e, 0x8a, 0x7f, 0xfd, 0x3e, 0xb6, 0xc9, 0x90, 0x3e,
  0xa0, 0x42, 0xf9, 0xbe, 0x00, 0xba, 0x7b, 0x3e, 0xd2, 0x96, 0xc7, 0xbe,
  0xe0, 0x73, 0xb4, 0x3c, 0x72, 0xd3, 0xb1, 0x3e, 0xe7, 0xa1, 0x89, 0xbe,
  0xd4, 0xd9, 0xad, 0xbe, 0x05, 0x5c, 0xd8, 0xbe, 0x74, 0x29, 0xf6, 0xbd,
  0x14, 0xdc, 0xeb, 0xbe, 0x2e, 0xd6, 0xf7, 0x3e, 0xa8, 0x07, 0x1c, 0x3e,
  0x85, 0x3c, 0xfc, 0xbe, 0xb4, 0x1f, 0xc0, 0x3e, 0xd4, 0xf1, 0xa7, 0x3e,
  0x90, 0x40, 0xfb, 0xbd, 0x4e, 0xc0, 0xe3, 0x3e, 0xe0, 0xae, 0x80, 0x3c,
  0xe8, 0x40, 0xa1, 0xbd, 0x9b, 0x48, 0x01, 0x3f, 0x80, 0xd1, 0xcf, 0x3c,
  0xcf, 0x8d, 0xa7, 0xbe, 0xd0, 0x61, 0xb4, 0x3d, 0x00, 0x0f, 0x55, 0x3e,
  0x8e, 0xeb, 0xc6, 0xbe, 0x28, 0x7f, 0x48, 0xbe, 0xe4, 0x50, 0xdb, 0x3e,
  0xe0, 0x9b, 0xfc, 0x3d, 0xc2, 0xf1, 0x94, 0x3e, 0x40, 0xa4, 0xd8, 0x3e,
  0xe2, 0x94, 0x07, 0xbf, 0x24, 0x97, 0xc9, 0xbe, 0xe4, 0xda, 0x1b, 0x3e,
  0x32, 0x4f, 0x12, 0xbe, 0xac, 0x6e, 0x9b, 0x3e, 0xa4, 0x2c, 0xac, 0x3e,
  0x94, 0xde, 0x91, 0xbe, 0x24, 0xe1, 0x79, 0x3e, 0x26, 0xde, 0xf1, 0x3e,
  0x84, 0xd2, 0xcb, 0x3e, 0x10, 0x36, 0x26, 0x3e, 0xc9, 0xe3, 0x06, 0x3f,
  0x00, 0x24, 0x53, 0x3d, 0xc8, 0x5c, 0x71, 0xbd, 0x90, 0x44, 0x4b, 0xbd,
  0x48, 0x5a, 0x58, 0x3e, 0xf0, 0xf2, 0xa4, 0x3d, 0x78, 0x5c, 0xa4, 0x3d,
  0xb8, 0x42, 0x5e, 0x3e, 0x3c, 0x81, 0xcc, 0xbe, 0x1c, 0x3c, 0x3f, 0x3e,
  0x7e, 0xb1, 0xc7, 0x3e, 0x00, 0x15, 0x14, 0xbe, 0xc0, 0x19, 0x58, 0x3d,
  0x04, 0xc8, 0xc8, 0xbd, 0x4e, 0xb2, 0x32, 0xbe, 0x32, 0x94, 0xf1, 0x3e,
  0xd8, 0x56, 0xa3, 0xbe, 0x68, 0x98, 0x66, 0xbd, 0xe0, 0xf6, 0x15, 0x3e,
  0x32, 0xd4, 0xff, 0xff, 0x04, 0x00, 0x00, 0x00, 0x00, 0x24, 0x00, 0x00,
  0x20, 0x9f, 0xbf, 0x3c, 0x2c, 0x6c, 0xb0, 0xbc, 0xe6, 0xc5, 0xb4, 0x3c,
  0xa4, 0xa7, 0x84, 0xbc, 0x11, 0xc7, 0x74, 0xbd, 0x23, 0x76, 0x86, 0x3e,
  0xc1, 0xcc, 0xd2, 0xbd, 0xc5, 0x24, 0xeb, 0x3c, 0xa2, 0x1a, 0xda, 0xbd,
  0xc2, 0x77, 0xa8, 0xbd, 0xe7, 0x8a, 0x71, 0x3e, 0x5b, 0x80, 0x6d, 0x3e,
  0x36, 0xb9, 0xe5, 0xbd, 0x8b, 0x78, 0x0f, 0xbe, 0x36, 0x4c, 0x37, 0xbc,
  0xd5, 0xa2, 0x8b, 0xbd, 0xe7, 0xd2, 0x22, 0xbc, 0x96, 0x46, 0x95, 0xbd,
  0x22, 0x53, 0xd5, 0xba, 0x5d, 0x41, 0x1f, 0xbe, 0x84, 0x28, 0x59, 0x3d,
  0xc6, 0x91, 0xbb, 0x3d, 0x69, 0x8f, 0x27, 0xbe, 0xac, 0x75, 0x10, 0x3e,
  0xf6, 0x3e, 0xa1, 0x3c, 0xa8, 0xf1, 0xdd, 0xbd, 0x03, 0x56, 0xc7, 0xbd,
  0x38, 0x26, 0xbf, 0x3d, 0xa2, 0xe1, 0x81, 0xbe, 0xcb, 0x6a, 0xed, 0x3c,
  0x15, 0x71, 0x3c, 0x3e, 0x50, 0xff, 0xd2, 0xbd, 0x1a, 0xdd, 0x75, 0xbd,
  0x44, 0x5b, 0xd3, 0x3c, 0xbe, 0xd2, 0x28, 0xbb, 0xd9, 0x67, 0x99, 0xbc,
  0x08, 0xab, 0xd8, 0x3d, 0xc4, 0x0c, 0x02, 0xbe, 0xdc, 0xc6, 0x97, 0xbd,
  0xca, 0xd7, 0x36, 0xbc, 0x5b, 0xc6, 0xf6, 0xbc, 0xe5, 0xe6, 0x76, 0xbd,
  0xf1, 0xa4, 0x9d, 0x3d, 0x32, 0x63, 0x96, 0x3d, 0xd3, 0x96, 0x2b, 0xbd,
  0xa2, 0x87, 0x4c, 0xbe, 0xd0, 0x3b, 0x7c, 0x3d, 0xef, 0x8f, 0xe7, 0x3d,
  0x7c, 0x3d, 0x34, 0xbe, 0x27, 0x11, 0x1b, 0x3e, 0x3a, 0x41, 0x81, 0x3d,
  0xa4, 0x5e, 0x3d, 0xbe, 0xe0, 0x9f, 0x44, 0xbe, 0xc0, 0x2d, 0x8c, 0x3a,
  0xdf, 0xa6, 0x84, 0xbd, 0x07, 0x9a, 0xd8, 0xbd, 0x3a, 0xfc, 0xc0, 0xbd,
  0xcb, 0x87, 0x6f, 0x3d, 0x5a, 0xa2, 0xd0, 0x3d, 0xe6, 0x22, 0x01, 0xbe,
  0x2c, 0xec, 0x10, 0xbd, 0x5e, 0xbe, 0x5b, 0xbe, 0x03, 0x8a, 0xfc, 0x3d,
  0xdb, 0xe0, 0x45, 0x3e, 0x3a, 0x3e, 0x5c, 0x3e, 0x1d, 0x97, 0xe6, 0xbc,
  0x2c, 0x7e, 0x25, 0xbe, 0xa7, 0x15, 0xe5, 0xbd, 0x07, 0xd9, 0xae, 0x3c,
  0xa4, 0xb0, 0x1b, 0xbe, 0x7c, 0x1a, 0x6f, 0xbd, 0x37, 0x99, 0x15, 0x3c,
  0x6f, 0xde, 0x18, 0x3e, 0x31, 0x21, 0x18, 0x3d, 0xc7, 0x3b, 0x7b, 0xbe,
  0x36, 0xc4, 0x2d, 0x3e, 0x05, 0xcc, 0x7b, 0xbc, 0x3f, 0x16, 0x87, 0xbd,
  0xa0, 0xf2, 0xf5, 0x3c, 0xfc, 0x96, 0xcc, 0xbd, 0x64, 0xea, 0xda, 0xbd,
  0x76, 0x10, 0xbf, 0xbd, 0x21, 0x25, 0xf9, 0x3d, 0xcf, 0xa9, 0xd3, 0x3d,
  0x17, 0x39, 0x64, 0x3e, 0xd4, 0x6f, 0x4c, 0xbe, 0xbb, 0x87, 0xfa, 0xbd,
  0x6b, 0x7d, 0x2c, 0x3e, 0x99, 0x58, 0x83, 0x3d, 0x4e, 0x52, 0x45, 0xbb,
  0x70, 0xfe, 0xbd, 0xbd, 0xe0, 0xad, 0xea, 0xbd, 0x1f, 0x49, 0x88, 0x3d,
  0xd0, 0x57, 0xc0, 0xbd, 0x4d, 0x26, 0xa4, 0xbd, 0x2f, 0xe9, 0xb2, 0x3d,
  0xd6, 0x0b, 0x29, 0x3d, 0x7c, 0x25, 0xb0, 0x3d, 0x01, 0x92, 0xfa, 0x3d,
  0x33, 0x53, 0xc2, 0xbd, 0x1b, 0x73, 0x9b, 0xbc, 0x04, 0xae, 0x19, 0xbd,
  0xbd, 0x3b, 0xb9, 0xbd, 0x02, 0x2a, 0x1b, 0x3e, 0x33, 0x29, 0xa2, 0xbd,
  0xe8, 0x98, 0x50, 0xbe, 0x94, 0x60, 0xe0, 0x3d, 0x2e, 0x64, 0x4a, 0xbe,
  0x3e, 0xc0, 0xd6, 0xbd, 0x06, 0x90, 0x06, 0xbe, 0x29, 0xd3, 0xdc, 0xbd,
  0x59, 0xfb, 0x5f, 0x3e, 0xff, 0x1e, 0xb1, 0xbd, 0x6a, 0x48, 0x47, 0xbd,
  0x31, 0xec, 0xb9, 0xbd, 0xe1, 0x46, 0xb7, 0xbd, 0x3e, 0x83, 0x80, 0xbc,
  0x85, 0x23, 0x15, 0xbc, 0x8e, 0x18, 0x73, 0x3d, 0xc8, 0xc6, 0xa8, 0x3c,
  0xb7, 0x80, 0x46, 0xbd, 0xb6, 0x87, 0x18, 0xbe, 0x66, 0x9d, 0x14, 0xbe,
  0x31, 0x83, 0x91, 0xbd, 0xb9, 0xdd, 0xb3, 0xbd, 0x9d, 0x1d, 0x1b, 0x3e,
  0x1f, 0x4b, 0x06, 0xbd, 0xe5, 0xd8, 0x9a, 0x3c, 0x7c, 0x4e, 0x12, 0x3c,
  0xc5, 0xad, 0xe4, 0x3d, 0x67, 0xe2, 0xf9, 0x3d, 0xea, 0x66, 0x5f, 0x3e,
  0x57, 0xd6, 0x7f, 0xbc, 0xd6, 0x9c, 0x06, 0xbe, 0x8e, 0xb0, 0xad, 0x3d,
  0xcd, 0x10, 0xb5, 0x3d, 0x00, 0xcc, 0x08, 0xbe, 0xc6, 0x0c, 0x17, 0xbe,
  0x31, 0x2e, 0xc3, 0x3c, 0xa3, 0x8e, 0x68, 0x3c, 0x9f, 0x4b, 0xd6, 0x3c,
  0x75, 0xec, 0x15, 0xbd, 0x37, 0x08, 0xf0, 0x3d, 0xff, 0x4b, 0x48, 0xbd,
  0x60, 0xe7, 0xcb, 0xbd, 0x5e, 0xa6, 0xfe, 0xbc, 0x59, 0xea, 0xb1, 0x3d,
  0x10, 0x01, 0x53, 0x3d, 0x51, 0x15, 0xdb, 0xbc, 0x81, 0x58, 0x29, 0xbe,
  0xa0, 0x7c, 0x6d, 0xbe, 0x64, 0x78, 0x15, 0x3e, 0xf9, 0x1c, 0x33, 0x3e,
  0xb9, 0x7b, 0x06, 0xbe, 0x52, 0x09, 0x36, 0x3e, 0x0b, 0xb3, 0x6c, 0x3e,
  0x53, 0x73, 0xb8, 0x3d, 0x06, 0xad, 0xcb, 0xbc, 0x0e, 0xf1, 0x1f, 0xbe,
  0x21, 0xae, 0xcf, 0x3d, 0xcc, 0x44, 0x21, 0xbe, 0x90, 0x19, 0x91, 0x3d,
  0x7a, 0x17, 0x02, 0x3e, 0x8f, 0x87, 0x8e, 0xbd, 0x17, 0x9a, 0xb3, 0xbd,
  0x1f, 0xc6, 0xfb, 0x3d, 0x5a, 0x9a, 0x81, 0x3e, 0x2c, 0x60, 0xac, 0x3d,
  0xb6, 0xd2, 0x8a, 0xbd, 0xa0, 0x6a, 0x94, 0xbd, 0x5c, 0x46, 0x6f, 0xbd,
  0x10, 0xb1, 0x73, 0x3d, 0x05, 0x6e, 0xc6, 0xbd, 0x57, 0x25, 0x72, 0xbe,
  0x17, 0x70, 0x49, 0x3e, 0x66, 0x58, 0x7f, 0xbc, 0xfc, 0x28, 0xf3, 0x3d,
  0xf4, 0xa8, 0x7a, 0xbc, 0x3b, 0x26, 0x39, 0xbd, 0xfd, 0x7a, 0xce, 0xbb,
  0xa9, 0xf8, 0x1c, 0x3e, 0x98, 0x94, 0x25, 0x3e, 0xed, 0x58, 0x15, 0x3d,
  0x1a, 0xa1, 0x21, 0xbe, 0x77, 0x61, 0x05, 0xbd, 0x7a, 0xfe, 0xc6, 0xbd,
  0x6c, 0x41, 0x37, 0x3d, 0x9f, 0x1a, 0x6d, 0x3e, 0x8b, 0x4a, 0x0b, 0x3e,
  0x4a, 0x19, 0x1b, 0x3e, 0xdb, 0x25, 0x1e, 0xbd, 0xc3, 0xaf, 0xdb, 0x3d,
  0x0c, 0x42, 0x1d, 0x3b, 0x4e, 0xe6, 0x9a, 0xbd, 0x5c, 0xae, 0x93, 0xbb,
  0x3f, 0x76, 0x24, 0xbe, 0x4d, 0x06, 0x28, 0xbe, 0xc8, 0xf4, 0xda, 0xbd,
  0x7f, 0xb8, 0x0c, 0x3d, 0x98, 0x89, 0xbe, 0x3d, 0x8c, 0xee, 0x57, 0xbe,
  0xda, 0x65, 0xaa, 0xbc, 0x46, 0xd4, 0x0c, 0xbb, 0xfe, 0x58, 0x11, 0xbe,
  0xa6, 0x12, 0xfa, 0xbd, 0x08, 0xd0, 0x6a, 0xbd, 0x1f, 0x90, 0x9e, 0x3d,
  0x2a, 0x6a, 0x5b, 0x3d, 0xe8, 0x6f, 0xea, 0x3b, 0x7f, 0x94, 0x92, 0x3d,
  0xc8, 0xa4, 0xcd, 0x3b, 0xa6, 0x4b, 0x12, 0x3e, 0xf6, 0x78, 0x4c, 0x3d,
  0x25, 0x41, 0x85, 0xbd, 0x09, 0x42, 0x94, 0xbc, 0x88, 0x60, 0xe8, 0x3d,
  0xf9, 0xf3, 0x60, 0xbe, 0x4d, 0xea, 0x5c, 0x3d, 0x3b, 0xdd, 0x11, 0x3e,
  0xec, 0x4f, 0xc5, 0x3d, 0x6b, 0x71, 0x11, 0xbc, 0x6a, 0x4a, 0xf0, 0x3d,
  0x2a, 0xe4, 0x9f, 0x3d, 0xde, 0x5e, 0x05, 0x3e, 0x5d, 0x97, 0xe8, 0xbd,
  0x1d, 0xca, 0xc4, 0xba, 0xd1, 0xe0, 0xc6, 0x3d, 0x42, 0xd2, 0x4b, 0x3e,
  0xee, 0x46, 0x2e, 0x3e, 0x00, 0x1e, 0x86, 0x3c, 0x54, 0x7d, 0x8e, 0xbd,
  0xa2, 0xad, 0x75, 0x3d, 0xab, 0xb0, 0x86, 0xbd, 0x32, 0x57, 0x20, 0x3e,
  0xc0, 0x93, 0x5b, 0xbd, 0x3f, 0x8f, 0xd7, 0x3c, 0x1a, 0x54, 0x24, 0xbe,
  0x1b, 0xf2, 0x0f, 0xbe, 0xb3, 0x62, 0xc6, 0xbd, 0x88, 0x88, 0x2e, 0x3d,
  0x0f, 0x15, 0x7e, 0x3e, 0xde, 0xfb, 0x09, 0xbe, 0x6e, 0x69, 0x20, 0x3d,
  0xf4, 0xd5, 0xbf, 0xbd, 0xc2, 0x89, 0x20, 0xbe, 0xbf, 0x2f, 0x54, 0x3e,
  0xad, 0x2d, 0xaa, 0xbb, 0xb4, 0x4a, 0x81, 0xbb, 0x17, 0x63, 0x1c, 0xbd,
  0x31, 0xdc, 0xf9, 0xbd, 0xe6, 0xdc, 0xba, 0xbd, 0x8f, 0x67, 0x1a, 0x3e,
  0x09, 0xd7, 0xc5, 0xbd, 0xbe, 0xef, 0x0c, 0xbd, 0x2d, 0xe6, 0x0b, 0x3d,
  0xfa, 0xe1, 0x53, 0x3e, 0xcb, 0x46, 0x22, 0xbe, 0x7a, 0x5e, 0x94, 0xbd,
  0x3c, 0x70, 0x27, 0xbc, 0xe3, 0xb8, 0x7a, 0xbe, 0x23, 0x82, 0x67, 0xbd,
  0xc9, 0x37, 0x12, 0x3e, 0x20, 0xe7, 0x4e, 0x3e, 0x61, 0x67, 0x8b, 0xbc,
  0xa0, 0x82, 0x8f, 0xbd, 0xee, 0xea, 0x24, 0xbd, 0x23, 0x75, 0x39, 0x3e,
  0xde, 0x3c, 0xdb, 0x3d, 0xaf, 0x8a, 0xbc, 0x3b, 0x3e, 0x3f, 0xa3, 0x3d,
  0x27, 0x04, 0x3b, 0x3e, 0x77, 0xa0, 0x09, 0x3e, 0xc0, 0x53, 0x76, 0xbb,
  0xef, 0xca, 0x22, 0xbe, 0x61, 0x6f, 0xff, 0xbc, 0x16, 0xd9, 0x80, 0x3d,
  0xf3, 0x31, 0xa6, 0x3c, 0xd9, 0xf0, 0x51, 0x3e, 0xa9, 0xbe, 0x13, 0xbe,
  0x32, 0x29, 0x0f, 0x3e, 0xd1, 0x88, 0x47, 0x3c, 0xae, 0xef, 0x6a, 0xbc,
  0xef, 0x3a, 0xca, 0x3c, 0x32, 0xee, 0xa6, 0xbc, 0xb3, 0x15, 0x8c, 0x3b,
  0x06, 0x2b, 0xdd, 0x3b, 0x61, 0x6d, 0x96, 0x3d, 0xe2, 0x79, 0x09, 0x3e,
  0x23, 0x17, 0xf7, 0x3d, 0xe6, 0x4c, 0xc2, 0x3a, 0xc9, 0x36, 0x54, 0x3e,
  0x8a, 0x92, 0x20, 0x3d, 0x39, 0x75, 0x34, 0xbe, 0x5d, 0xc0, 0x9b, 0xbc,
  0x73, 0x46, 0xa9, 0x3d, 0x43, 0x73, 0x60, 0x3d, 0xb7, 0x53, 0x42, 0xbd,
  0xc2, 0x4d, 0x43, 0x3d, 0x51, 0x96, 0x2d, 0xbc, 0x32, 0xca, 0x09, 0x3d,
  0xaa, 0x29, 0xe3, 0x3d, 0x3e, 0x5c, 0xa5, 0x3d, 0x78, 0x8b, 0x61, 0x3b,
  0x70, 0x79, 0x8d, 0xbc, 0x39, 0x52, 0xc7, 0xbd, 0xe3, 0xbb, 0x14, 0xbe,
  0xe9, 0x9f, 0x64, 0x3e, 0x16, 0x1e, 0xc1, 0x3b, 0x2f, 0x5a, 0x7d, 0x3c,
  0x79, 0xa7, 0x0d, 0x3e, 0x53, 0xea, 0x15, 0x3d, 0xb1, 0x85, 0xd5, 0x3a,
  0xb4, 0xa2, 0xfc, 0xbd, 0x22, 0x56, 0x01, 0x3e, 0x76, 0xac, 0x8c, 0xbd,
  0x06, 0x2a, 0x3c, 0x3e, 0x4d, 0x97, 0x1a, 0xbe, 0xff, 0x88, 0x8b, 0xbc,
  0x52, 0xb2, 0x93, 0x3d, 0x02, 0xfc, 0xf2, 0xbc, 0x8a, 0x46, 0x67, 0x3d,
  0x95, 0x07, 0xdc, 0xbd, 0xd8, 0x22, 0xdd, 0xbc, 0x6b, 0xd4, 0x9a, 0xbd,
  0x27, 0x23, 0xf2, 0xbd, 0xdc, 0x2b, 0x53, 0xbd, 0x58, 0xab, 0xc9, 0x3c,
  0xee, 0x7b, 0x29, 0x3e, 0x23, 0x27, 0x59, 0xbd, 0x1d, 0x62, 0xa4, 0x3d,
  0x43, 0xe9, 0x78, 0x3d, 0x90, 0x0b, 0x29, 0x3c, 0xe9, 0xd7, 0x7a, 0xbe,
  0x9f, 0x7c, 0x74, 0xbd, 0x70, 0xe8, 0xdc, 0x3b, 0xd3, 0xfd, 0x6f, 0x3e,
  0x9b, 0x15, 0x10, 0xbd, 0xd8, 0xa2, 0x20, 0xbd, 0xc8, 0xad, 0x83, 0xbc,
  0x58, 0x15, 0x7a, 0x3e, 0xce, 0xe6, 0xdb, 0xbd, 0xfa, 0x66, 0x07, 0x3e,
  0x8e, 0xfc, 0x25, 0xbe, 0x01, 0xf1, 0x03, 0xbe, 0xa1, 0x81, 0x82, 0x3e,
  0xf8, 0x9f, 0x5b, 0x3c, 0xfe, 0x9d, 0x9b, 0xbd, 0xd4, 0xd4, 0x02, 0x3e,
  0x6a, 0x8d, 0xb9, 0xbd, 0x04, 0x46, 0x81, 0x3e, 0x93, 0x6e, 0xaf, 0xbd,
  0xed, 0xd0, 0x86, 0xbe, 0x3d, 0xf8, 0xfe, 0xbd, 0x74, 0x2c, 0x8b, 0x3b,
  0xcb, 0xd5, 0xa4, 0x3c, 0xde, 0x46, 0x1a, 0xbd, 0x03, 0x07, 0xd7, 0x3d,
  0xc2, 0xa1, 0x89, 0xbd, 0xe8, 0x2c, 0xf4, 0xbd, 0x04, 0xc8, 0x4e, 0xbc,
  0x1f, 0x13, 0x69, 0x3e, 0xa2, 0xea, 0xfe, 0x3d, 0xe6, 0xe1, 0x57, 0xbd,
  0xb7, 0x0a, 0x5e, 0xbe, 0xec, 0xf6, 0xe7, 0x3c, 0x9d, 0x0c, 0x18, 0x3e,
  0xbf, 0xe4, 0xec, 0x3b, 0x7b, 0xb8, 0x26, 0xbe, 0x76, 0xc3, 0x09, 0x3d,
  0xf0, 0xe8, 0x0b, 0x3d, 0xf1, 0x59, 0x5d, 0x3e, 0x6e, 0x46, 0x78, 0x3d,
  0x33, 0xa2, 0xf4, 0xbd, 0x63, 0xd7, 0x5d, 0x3d, 0x57, 0x8f, 0xcf, 0xbd,
  0x29, 0x7f, 0x7e, 0xbe, 0x20, 0xfc, 0x19, 0xbd, 0xe4, 0x22, 0xae, 0xbd,
  0xa2, 0x30, 0xf9, 0xbc, 0x47, 0x5c, 0xf7, 0xbd, 0xf7, 0x2f, 0x0c, 0x3e,
  0xb9, 0x36, 0xe6, 0x3d, 0xf8, 0x86, 0xd9, 0xbd, 0x32, 0x19, 0x14, 0x3e,
  0x20, 0xc6, 0x01, 0x3e, 0x96, 0x94, 0x10, 0x3e, 0x94, 0x16, 0xa2, 0xbd,
  0x27, 0x22, 0x2b, 0xbe, 0x2e, 0xec, 0x6b, 0xbe, 0x69, 0x2c, 0xf2, 0x3c,
  0x0c, 0x56, 0xff, 0x3b, 0xe2, 0x37, 0xc4, 0x3c, 0x12, 0x5d, 0x79, 0xbe,
  0xad, 0x19, 0x95, 0x3b, 0x00, 0xc7, 0xde, 0xbd, 0x09, 0xa7, 0x2f, 0xbe,
  0x82, 0x94, 0x62, 0x3e, 0x95, 0x62, 0x86, 0x3d, 0x7b, 0x40, 0xbb, 0x3c,
  0x4f, 0x19, 0x58, 0xbd, 0xbb, 0xed, 0x28, 0x3c, 0x71, 0xab, 0xd2, 0xbd,
  0x58, 0x86, 0xb2, 0x3d, 0x04, 0x94, 0x07, 0x3c, 0x55, 0x69, 0x67, 0x3d,
  0x24, 0x26, 0xed, 0x3d, 0x05, 0x1a, 0xc1, 0xbb, 0x13, 0x7a, 0x07, 0x3d,
  0x4b, 0xd5, 0x86, 0x3d, 0x46, 0xf3, 0x3a, 0xbe, 0x97, 0x0f, 0xab, 0x3c,
  0xbc, 0x87, 0xa8, 0x3d, 0x8c, 0xfa, 0xfe, 0x3d, 0x87, 0x14, 0xe1, 0xbc,
  0x1e, 0xd5, 0xa9, 0xbc, 0x19, 0x03, 0xf6, 0xb9, 0x3e, 0x71, 0x34, 0x3e,
  0x8e, 0x53, 0xf6, 0xbd, 0x83, 0xa8, 0xd0, 0xbd, 0xd0, 0x47, 0x32, 0xbe,
  0x6f, 0xe5, 0x72, 0xbe, 0x88, 0x2b, 0x55, 0xbe, 0x81, 0xdd, 0x89, 0xbd,
  0x8e, 0xac, 0x54, 0xbe, 0x34, 0x13, 0x8a, 0x3c, 0x3c, 0x61, 0x24, 0xbe,
  0xa4, 0x84, 0x0a, 0x3e, 0xe7, 0x7e, 0x14, 0xbd, 0x18, 0xa8, 0x06, 0xbe,
  0x08, 0xf8, 0x85, 0x3b, 0xe6, 0xf9, 0x88, 0x3d, 0x62, 0x91, 0x00, 0x3e,
  0xa0, 0x58, 0xe3, 0xbd, 0xba, 0xe8, 0x01, 0x3d, 0x86, 0xb6, 0xaf, 0x3d,
  0x5d, 0x03, 0x7a, 0xbe, 0xb5, 0x33, 0x14, 0x3e, 0x50, 0xdb, 0x06, 0xbe,
  0x36, 0xa8, 0xa8, 0x3d, 0x48, 0x64, 0xa2, 0x3b, 0x15, 0x3d, 0xb4, 0xbd,
  0x2d, 0xa2, 0x46, 0x3e, 0x5a, 0x09, 0x45, 0x3b, 0x28, 0x98, 0x1b, 0xbd,
  0x15, 0x28, 0x7f, 0x3e, 0x0c, 0x4d, 0x56, 0xba, 0xd0, 0x6a, 0x96, 0xbc,
  0x91, 0xf0, 0x60, 0x3d, 0x28, 0x84, 0x54, 0x3d, 0x62, 0x32, 0xd7, 0xbd,
  0xbb, 0x01, 0x00, 0xbe, 0xc7, 0xdd, 0x71, 0xbd, 0x9e, 0x03, 0x75, 0xbe,
  0x21, 0x66, 0x39, 0xbe, 0xb6, 0xc6, 0x50, 0xbe, 0xf2, 0x4b, 0x25, 0x3e,
  0xc2, 0x40, 0x5d, 0xbd, 0x47, 0x0b, 0x22, 0x3d, 0xf8, 0xd7, 0x4a, 0xbe,
  0x0b, 0x0b, 0x69, 0xbe, 0x9f, 0x88, 0x79, 0xbe, 0x0b, 0xfa, 0x01, 0xbd,
  0xa6, 0xc7, 0x04, 0xbe, 0xc0, 0x34, 0x2f, 0x3e, 0xcb, 0x7c, 0xd0, 0xbd,
  0x0a, 0xd1, 0x12, 0xbd, 0xe4, 0x7b, 0x4b, 0x3d, 0x47, 0x52, 0x52, 0xbe,
  0xe3, 0x8f, 0x07, 0x3c, 0xcf, 0xe3, 0x05, 0xbe, 0xe7, 0xf9, 0xbe, 0x3d,
  0xa1, 0xa2, 0x73, 0x3c, 0xbe, 0x3a, 0xd1, 0x3d, 0xba, 0x72, 0xbe, 0xbd,
  0x10, 0x5a, 0x14, 0x3d, 0xd2, 0xde, 0x94, 0xbd, 0xb6, 0x40, 0x3c, 0x3c,
  0xef, 0x46, 0x9e, 0xbd, 0x41, 0xf8, 0x50, 0xbe, 0x62, 0x15, 0xdd, 0xbd,
  0x08, 0xbf, 0x76, 0xbd, 0x1a, 0xdf, 0x82, 0x3b, 0x3b, 0x1d, 0x62, 0xbe,
  0xad, 0x6f, 0xd9, 0xbb, 0x7d, 0x75, 0xdc, 0x3c, 0x8d, 0x3e, 0x6a, 0xbd,
  0x2a, 0x9b, 0x10, 0x3d, 0xab, 0x5e, 0xeb, 0xbd, 0xb2, 0xb0, 0x21, 0x3d,
  0x34, 0xaa, 0xbd, 0x3d, 0x68, 0xa3, 0xe2, 0xbc, 0xd8, 0x45, 0x62, 0x3e,
  0x95, 0x43, 0xf9, 0x3d, 0x9b, 0x52, 0x45, 0x3d, 0x0a, 0x98, 0x58, 0x3e,
  0xdb, 0x03, 0x14, 0xbd, 0xac, 0x07, 0x44, 0x3d, 0xdf, 0x1b, 0xb4, 0x3d,
  0x3f, 0xe7, 0x7e, 0x3e, 0x26, 0x12, 0x6d, 0x3e, 0x34, 0x99, 0xc5, 0x3c,
  0x62, 0x90, 0xac, 0xbc, 0x08, 0xdc, 0x02, 0xbe, 0x36, 0x3d, 0x32, 0xbd,
  0xb0, 0x10, 0x26, 0x3e, 0xa5, 0x68, 0x97, 0x3d, 0xa1, 0x0f, 0x7c, 0xbd,
  0xdb, 0xe6, 0x58, 0xba, 0x97, 0x3a, 0x85, 0x3a, 0x6b, 0x3b, 0xc5, 0x3d,
  0x0f, 0xdf, 0x46, 0xbd, 0xf9, 0x2c, 0x09, 0x3e, 0x15, 0xda, 0x6d, 0x3e,
  0x23, 0x60, 0xd3, 0xbc, 0xf8, 0x42, 0x45, 0xbe, 0xdd, 0x16, 0x10, 0xbd,
  0xf0, 0x76, 0x38, 0x3e, 0x67, 0x83, 0xc8, 0xbd, 0xf2, 0x05, 0xff, 0xbd,
  0xc7, 0xbc, 0x3a, 0xbe, 0xbd, 0x70, 0xbc, 0xbd, 0x1e, 0xb6, 0x3f, 0x3d,
  0x7e, 0xa7, 0xab, 0xbc, 0xc3, 0x0b, 0x6f, 0x3c, 0xbe, 0xea, 0xde, 0xbd,
  0xcc, 0x2c, 0x1a, 0x3e, 0xe7, 0x6c, 0x86, 0x3a, 0x02, 0xb5, 0xd5, 0xbd,
  0x74, 0xe5, 0x57, 0xbe, 0x54, 0xc9, 0xa1, 0x3d, 0xd3, 0xd9, 0x82, 0x3d,
  0xeb, 0xaf, 0x40, 0xbe, 0x83, 0x31, 0x61, 0x3e, 0x1a, 0x94, 0xec, 0x3d,
  0xc1, 0xc4, 0x77, 0xbe, 0xa9, 0x4a, 0xad, 0x3c, 0xa0, 0xd6, 0xa7, 0x3d,
  0xad, 0x0c, 0xd1, 0x3d, 0xd6, 0xc1, 0x93, 0xbd, 0x7f, 0xf2, 0x79, 0x3b,
  0xba, 0x83, 0x30, 0x3e, 0xe5, 0x78, 0x20, 0x3d, 0xbf, 0x5f, 0x1b, 0xbd,
  0xb7, 0x2c, 0x87, 0xbe, 0xe2, 0xa0, 0x3e, 0x3e, 0xe4, 0x87, 0x81, 0xbd,
  0x84, 0xb0, 0xa0, 0x3d, 0x42, 0x4c, 0x80, 0x3e, 0x5d, 0xf2, 0xf4, 0x3d,
  0x70, 0xb3, 0x6f, 0x3e, 0x56, 0x66, 0xd2, 0xbd, 0x13, 0xd4, 0xb8, 0xbd,
  0x3a, 0xd1, 0xa3, 0xbb, 0x45, 0x76, 0x3c, 0xbe, 0x2c, 0x88, 0x2e, 0x3e,
  0x17, 0x8d, 0xf5, 0x3d, 0xea, 0x60, 0x7c, 0xbc, 0x00, 0x4a, 0xc2, 0x3c,
  0xd6, 0x79, 0x86, 0x3d, 0x04, 0xb1, 0xb1, 0x3d, 0xb9, 0x05, 0x90, 0xbd,
  0x27, 0x64, 0x0b, 0x3e, 0xa0, 0xa9, 0xf8, 0x3d, 0x4f, 0x2f, 0xb5, 0x3c,
  0x02, 0x5a, 0x3e, 0x3d, 0x3f, 0x8c, 0xe4, 0x3d, 0xca, 0x6c, 0x00, 0xbe,
  0x15, 0xb9, 0x98, 0x3d, 0xe1, 0x72, 0x75, 0x3e, 0xc0, 0x2f, 0x90, 0xbd,
  0x1c, 0x88, 0xd5, 0xbd, 0x8c, 0x5b, 0x34, 0x3e, 0x20, 0xd8, 0x20, 0xbd,
  0x78, 0x54, 0xa7, 0xbd, 0x4d, 0x56, 0x59, 0x3e, 0xe3, 0x4e, 0xaa, 0x3d,
  0x05, 0xd8, 0x90, 0x3b, 0x95, 0x46, 0xa6, 0x3d, 0x41, 0xb2, 0x66, 0xbd,
  0x47, 0x9b, 0xb5, 0x3d, 0xcc, 0x07, 0x27, 0xbd, 0x4c, 0x8d, 0x86, 0x3d,
  0x07, 0x25, 0xdc, 0xbd, 0x96, 0xdb, 0x95, 0xbd, 0x0d, 0xea, 0xd0, 0xbd,
  0x5c, 0xf6, 0xb2, 0xbc, 0xb5, 0x8f, 0x76, 0xbd, 0xf1, 0x0e, 0x3a, 0xbd,
  0x2c, 0x1b, 0x99, 0x3d, 0x17, 0xd3, 0x73, 0x3e, 0x92, 0x69, 0x3a, 0x3d,
  0x48, 0x80, 0x85, 0x3d, 0x23, 0x45, 0x14, 0xbd, 0x30, 0x82, 0xe3, 0x3d,
  0x2a, 0xed, 0xc5, 0xbd, 0x0b, 0xb0, 0x67, 0xbe, 0xc1, 0xbe, 0xf9, 0xbd,
  0x92, 0x62, 0x74, 0x3e, 0x7d, 0x2e, 0x28, 0xbd, 0x31, 0x25, 0xd8, 0x3d,
  0x2b, 0x5c, 0x4f, 0x3d, 0xa3, 0x8b, 0x18, 0xbe, 0xf2, 0x72, 0x69, 0x3d,
  0xd8, 0x88, 0x72, 0xbc, 0x22, 0x1d, 0xfb, 0xbd, 0x69, 0x1f, 0xdb, 0xbd,
  0xb9, 0xe2, 0xb3, 0xbd, 0x37, 0xef, 0xe1, 0xb9, 0x90, 0x2e, 0x94, 0xbc,
  0xa4, 0x57, 0x0e, 0xbe, 0x12, 0x7c, 0xf1, 0x3d, 0x05, 0x4a, 0xd8, 0xbd,
  0x2e, 0x58, 0x71, 0x3d, 0xb9, 0xeb, 0x9d, 0x3d, 0x4e, 0x72, 0x48, 0x3d,
  0xd6, 0xd0, 0x37, 0xbe, 0x3d, 0xdb, 0xf6, 0x3b, 0xe6, 0x67, 0xc2, 0x3d,
  0xf9, 0x5e, 0x7d, 0x3c, 0xdd, 0x6c, 0x4b, 0xbe, 0x9e, 0x77, 0x4a, 0x3e,
  0x12, 0x05, 0xa4, 0x3d, 0xc3, 0xf9, 0x2c, 0x3e, 0x34, 0x2e, 0x9b, 0x3d,
  0x3e, 0x89, 0x23, 0x3e, 0xbd, 0x09, 0xd9, 0xbd, 0xd5, 0x0e, 0x53, 0xbe,
  0x92, 0xcc, 0x67, 0x3d, 0xbf, 0xac, 0xd4, 0x3d, 0x63, 0xf7, 0x3b, 0xbe,
  0x83, 0xb9, 0x6f, 0x3e, 0x55, 0xf4, 0xf1, 0x3d, 0xfa, 0x1a, 0xb3, 0x3d,
  0x1d, 0x99, 0x22, 0xbd, 0x65, 0xe6, 0x1b, 0xbe, 0x92, 0x2d, 0x2b, 0x3b,
  0xfb, 0xca, 0x6c, 0x3e, 0x0d, 0x01, 0x0b, 0x3e, 0xc5, 0x2a, 0x50, 0xbe,
  0x9f, 0x41, 0xbc, 0xbd, 0x87, 0x72, 0xd5, 0x3d, 0x78, 0x2a, 0x75, 0x3e,
  0x87, 0x5f, 0xd5, 0x3d, 0x04, 0xa8, 0x37, 0xbe, 0x65, 0xd5, 0x23, 0x3d,
  0x53, 0x9c, 0xc2, 0x3d, 0xa7, 0xac, 0x64, 0xbd, 0xb4, 0xd0, 0x4f, 0xbd,
  0xf1, 0x65, 0x0f, 0x3e, 0x34, 0xd8, 0xe3, 0x3c, 0x4e, 0x8b, 0x10, 0x3e,
  0xd9, 0x3b, 0x09, 0xbd, 0x27, 0x9c, 0x4d, 0x3d, 0xce, 0xb4, 0xda, 0xbd,
  0xbe, 0x6c, 0x27, 0xbe, 0x40, 0x7c, 0x1d, 0xbe, 0xfc, 0xda, 0xcb, 0xbd,
  0xcd, 0x40, 0xb7, 0x3a, 0x39, 0xf1, 0x6a, 0x3e, 0xeb, 0x60, 0x64, 0x3e,
  0x2d, 0xc2, 0xce, 0xbd, 0xcc, 0xdc, 0x47, 0x3e, 0x18, 0xcd, 0x65, 0xbd,
  0x80, 0xb2, 0x5c, 0xbd, 0x94, 0xda, 0x0d, 0x3d, 0x19, 0x30, 0x46, 0x3d,
  0xe4, 0x1d, 0x90, 0x3d, 0x33, 0x9c, 0xc2, 0xbb, 0x21, 0x73, 0x04, 0x3e,
  0x32, 0x7b, 0xd4, 0x3d, 0x07, 0xb9, 0x6b, 0xbd, 0x1e, 0x69, 0xe2, 0xbc,
  0x5d, 0x06, 0x81, 0xbd, 0xfd, 0x7b, 0x0c, 0x3e, 0x07, 0xd0, 0xa6, 0xbd,
  0xbf, 0x77, 0xf2, 0x3c, 0x0f, 0xd0, 0x96, 0x3b, 0xc3, 0x68, 0xab, 0x3d,
  0x3d, 0x12, 0x1c, 0x3e, 0xe3, 0xfe, 0x38, 0xbe, 0x8d, 0x0f, 0x03, 0x3e,
  0x31, 0x7a, 0xc5, 0x3d, 0x94, 0x79, 0x45, 0x3e, 0x3b, 0xf3, 0xc4, 0xbc,
  0x2e, 0xc8, 0xb6, 0x3d, 0xfc, 0xa0, 0x48, 0x3e, 0x15, 0x5a, 0x09, 0xbe,
  0x4f, 0x92, 0xf1, 0x3d, 0x40, 0x0c, 0x1c, 0xbd, 0xb9, 0x46, 0x54, 0xbd,
  0x37, 0x0f, 0xdb, 0x3d, 0xdd, 0x0d, 0x78, 0x3e, 0xf6, 0x64, 0x93, 0x3d,
  0x85, 0x4f, 0xdc, 0x3b, 0x7c, 0x58, 0x7a, 0x3e, 0xb4, 0x1c, 0xdd, 0x3d,
  0xc7, 0x6a, 0xc3, 0xbc, 0xce, 0xc5, 0xaf, 0xbd, 0x25, 0xfe, 0x6b, 0xbe,
  0x1a, 0x4a, 0x71, 0x3e, 0x20, 0x57, 0xdb, 0x3d, 0x96, 0xcc, 0xb3, 0xba,
  0xd9, 0x1f, 0x95, 0x3a, 0x40, 0x4f, 0x91, 0x3d, 0xcc, 0xdd, 0x7d, 0xbd,
  0xf1, 0x43, 0xe1, 0xbd, 0xd9, 0xde, 0x0e, 0x3c, 0x35, 0x91, 0xcf, 0x3d,
  0x50, 0x3b, 0xc3, 0xbd, 0x8c, 0xd3, 0x41, 0xbe, 0x89, 0x13, 0xa8, 0x3d,
  0xb5, 0xb8, 0x75, 0xbd, 0xca, 0x4b, 0x02, 0x3d, 0x12, 0x63, 0xc6, 0xbb,
  0x6a, 0x17, 0x2c, 0xbe, 0x19, 0xdf, 0xea, 0xbc, 0x83, 0x9e, 0x26, 0xbe,
  0x73, 0x46, 0x03, 0x3d, 0x07, 0xe4, 0x93, 0xbd, 0x3c, 0xe1, 0xbb, 0x3d,
  0x0a, 0x2a, 0x54, 0x3e, 0xa7, 0x68, 0x19, 0x3e, 0x3e, 0x12, 0x6a, 0xbe,
  0xc3, 0x7b, 0x07, 0x3d, 0xc0, 0xe8, 0xf8, 0x3c, 0xc5, 0x24, 0xf8, 0x3c,
  0x21, 0x6c, 0x94, 0xbd, 0xb4, 0x86, 0x22, 0x3d, 0x36, 0xa8, 0x34, 0xbe,
  0x20, 0xeb, 0x12, 0x3e, 0x9a, 0xa0, 0x9a, 0x3c, 0xec, 0x41, 0x8c, 0xbd,
  0xdf, 0xb3, 0x22, 0x3d, 0xc4, 0x0d, 0x85, 0xbc, 0xa9, 0xf6, 0x9d, 0x3c,
  0xa9, 0x79, 0x4d, 0x3d, 0x5c, 0x29, 0x3a, 0xbe, 0xe5, 0x38, 0xf0, 0xbd,
  0xef, 0xa5, 0x93, 0xbd, 0xb1, 0x90, 0xcd, 0xbc, 0x41, 0xd7, 0x55, 0x3e,
  0x72, 0x43, 0x86, 0xbe, 0x89, 0xba, 0xd7, 0x3d, 0x9c, 0x54, 0x80, 0xbe,
  0x79, 0x8c, 0xcf, 0x3d, 0x94, 0xb0, 0x05, 0x3e, 0x59, 0xc1, 0x0a, 0x3e,
  0xbc, 0x76, 0xf7, 0x3c, 0xb9, 0x1a, 0x1b, 0x3d, 0x78, 0x0e, 0x2d, 0x3d,
  0x09, 0xe8, 0xd0, 0x3d, 0xc1, 0x82, 0xb1, 0x3d, 0x87, 0x9d, 0x64, 0xbd,
  0x76, 0x67, 0x35, 0x3e, 0x1d, 0x4a, 0xa8, 0xbd, 0x1c, 0xf0, 0x88, 0xbd,
  0x79, 0x71, 0x4a, 0xbc, 0x84, 0xcf, 0x63, 0xbc, 0x47, 0x6f, 0x0f, 0x3e,
  0x4e, 0xdd, 0xbf, 0x3d, 0x61, 0xa4, 0x34, 0xbe, 0x7d, 0x2e, 0x6f, 0xbd,
  0x12, 0x59, 0x86, 0x3e, 0x8f, 0x49, 0x83, 0xbd, 0x15, 0xbf, 0x6b, 0xbe,
  0x6e, 0xf5, 0x04, 0x3e, 0xd0, 0xff, 0x38, 0xbe, 0x0d, 0x33, 0xaf, 0xbd,
  0x30, 0xba, 0x32, 0xbd, 0xd0, 0x09, 0x20, 0x3d, 0x23, 0xe3, 0x53, 0xbe,
  0x6e, 0xb9, 0x08, 0x3e, 0xe3, 0x23, 0x04, 0x3d, 0x4b, 0x47, 0xe4, 0xbb,
  0xae, 0xb3, 0x2e, 0x3d, 0x61, 0xff, 0xad, 0x3d, 0xd1, 0x92, 0x79, 0x3d,
  0x62, 0x96, 0x14, 0x3e, 0x43, 0xb2, 0xad, 0xbd, 0xfb, 0x9d, 0x81, 0x3d,
  0x9c, 0x6f, 0x37, 0xbd, 0x22, 0x31, 0x46, 0x3e, 0x1b, 0x45, 0x9d, 0x3d,
  0xe0, 0x45, 0x61, 0x3e, 0x29, 0xb3, 0x00, 0xbe, 0x6c, 0x59, 0x34, 0x3e,
  0x20, 0x4d, 0x3b, 0x3e, 0xec, 0x62, 0xa8, 0x3d, 0x08, 0xdc, 0xba, 0xbd,
  0x1e, 0xfc, 0x4b, 0xbe, 0x96, 0x6c, 0xe5, 0x3c, 0xcf, 0xf3, 0x5f, 0xbd,
  0x71, 0x04, 0x72, 0x3d, 0x50, 0x57, 0xf8, 0x3d, 0x44, 0xfc, 0x64, 0x3e,
  0xbc, 0x05, 0x57, 0xbd, 0x70, 0x3f, 0x64, 0xbb, 0x36, 0x48, 0x15, 0x3c,
  0x26, 0x01, 0xcd, 0x3d, 0x3d, 0x7d, 0x38, 0x3e, 0x5b, 0x18, 0x5b, 0xbd,
  0x25, 0xd1, 0x2c, 0x3e, 0x90, 0x86, 0x85, 0xbd, 0xf8, 0x4c, 0x3b, 0xbe,
  0x12, 0xa2, 0xe5, 0xbd, 0xc7, 0x2f, 0x02, 0xbd, 0xcc, 0x32, 0x86, 0xbe,
  0xc5, 0x35, 0x83, 0xbd, 0x2a, 0x4f, 0x00, 0xbe, 0xb2, 0xa7, 0xb3, 0x3c,
  0x65, 0x0b, 0x72, 0x3d, 0xe9, 0x87, 0x35, 0xbc, 0x00, 0xa7, 0x76, 0xbb,
  0xbd, 0x84, 0x0d, 0xbe, 0x0f, 0x46, 0x42, 0x3e, 0x07, 0x0f, 0xb5, 0xbc,
  0x51, 0xa1, 0xbf, 0xbd, 0x48, 0x5a, 0xa8, 0x3d, 0xe4, 0x43, 0x38, 0x3c,
  0x44, 0x45, 0x4d, 0x3d, 0x86, 0xef, 0x53, 0x3e, 0x90, 0x38, 0x52, 0xbe,
  0xa3, 0x82, 0xa6, 0xbc, 0x7f, 0xae, 0x63, 0x3e, 0xbf, 0x12, 0x7b, 0xbd,
  0xc5, 0xa1, 0xaa, 0xbd, 0xe6, 0x74, 0xc7, 0xbd, 0x20, 0x85, 0x29, 0xbe,
  0x2d, 0xfc, 0x4c, 0xbe, 0xb8, 0x21, 0x25, 0xbe, 0x5b, 0xbd, 0xf5, 0x3d,
  0xbb, 0x48, 0xdc, 0xbd, 0x6e, 0x2c, 0x2b, 0xbd, 0x2a, 0x06, 0xef, 0x3c,
  0x82, 0x05, 0x19, 0x3e, 0x63, 0x77, 0x64, 0x3d, 0x4b, 0x3d, 0x4d, 0x3d,
  0x55, 0x46, 0x17, 0x3c, 0x70, 0xcc, 0xb7, 0xbc, 0xfa, 0x0e, 0xc2, 0x3d,
  0x71, 0xb8, 0xb2, 0x3d, 0x69, 0x28, 0x98, 0xbc, 0xd6, 0x43, 0x2e, 0x3e,
  0x83, 0x4f, 0x9a, 0x3d, 0xdc, 0x84, 0xbb, 0x3d, 0x6f, 0x1a, 0xaa, 0x3d,
  0xe8, 0x9d, 0x01, 0xbe, 0x30, 0x47, 0x42, 0x3d, 0x56, 0x62, 0x20, 0x3e,
  0xa7, 0x48, 0x04, 0xbe, 0x72, 0x68, 0xe5, 0xbc, 0x48, 0x5d, 0x21, 0x3e,
  0xd6, 0x3f, 0x8d, 0xbd, 0x9e, 0x1e, 0xcd, 0x3d, 0x6d, 0x62, 0x41, 0xbe,
  0xa1, 0x22, 0x43, 0xbd, 0x58, 0x59, 0x5a, 0xbd, 0x47, 0x75, 0xe0, 0xbd,
  0x64, 0xb1, 0x94, 0xbd, 0x8d, 0x24, 0xd7, 0xbd, 0x50, 0x9b, 0xdf, 0xbd,
  0xb1, 0x34, 0xfe, 0x3d, 0x15, 0xdc, 0x3b, 0xbd, 0x3e, 0x72, 0x3c, 0x3d,
  0x9e, 0xa3, 0x7e, 0xbc, 0x9b, 0xc4, 0x3c, 0xbe, 0x44, 0x76, 0xfe, 0xbd,
  0x0c, 0xb9, 0xa0, 0x3d, 0x42, 0x76, 0x02, 0x3e, 0x28, 0xb1, 0xa8, 0xbc,
  0x70, 0x4c, 0x09, 0x3d, 0x6d, 0x74, 0x05, 0xbe, 0x6f, 0xde, 0x2f, 0xbc,
  0x76, 0xd2, 0x80, 0x3d, 0xe4, 0xcb, 0x56, 0x3e, 0x50, 0x43, 0x33, 0xbd,
  0x9e, 0x1f, 0x13, 0xbe, 0x65, 0xab, 0x04, 0xbe, 0xff, 0x05, 0xd5, 0xbd,
  0x0b, 0x22, 0xfd, 0x3d, 0x5f, 0x2a, 0x3a, 0xbe, 0x42, 0x2a, 0xa2, 0xbd,
  0xa8, 0x41, 0xbb, 0xbc, 0xd2, 0x9c, 0x05, 0xbe, 0x55, 0x67, 0xce, 0x3d,
  0xa2, 0x35, 0xba, 0xbd, 0xa3, 0xb8, 0x94, 0xbc, 0xd8, 0x27, 0x2e, 0xbe,
  0x5c, 0x5f, 0xb4, 0xbc, 0x46, 0x70, 0x4b, 0x3d, 0xf2, 0xd1, 0x92, 0x3c,
  0xdb, 0x7c, 0xbb, 0x3b, 0xa4, 0x12, 0x23, 0xbd, 0x62, 0xf1, 0x4b, 0xbc,
  0x9f, 0x48, 0xa2, 0x3c, 0xcb, 0xdc, 0x5c, 0xbd, 0xe7, 0xfb, 0x17, 0xbb,
  0x49, 0x9e, 0x7d, 0xbd, 0x73, 0xaa, 0x81, 0xbe, 0x16, 0x28, 0xf5, 0xbd,
  0xac, 0xf4, 0xa7, 0x3c, 0x29, 0x8f, 0x10, 0xbe, 0x0a, 0xba, 0x89, 0xbc,
  0x4b, 0x47, 0x02, 0xbd, 0xb1, 0x41, 0x21, 0xbd, 0xf4, 0x0a, 0x80, 0xbc,
  0x91, 0xba, 0x6f, 0xbd, 0x35, 0xc2, 0x85, 0x3d, 0xaa, 0x21, 0x9f, 0x3d,
  0x81, 0xf3, 0xa0, 0x3c, 0xab, 0x2d, 0x02, 0x3e, 0x2d, 0x7f, 0xdb, 0x3d,
  0x91, 0x75, 0x79, 0x3b, 0x86, 0xeb, 0xe3, 0xbd, 0x46, 0x2f, 0x13, 0xbe,
  0xee, 0x29, 0x79, 0xbe, 0x83, 0xb7, 0x1e, 0xbe, 0xb4, 0x67, 0xf3, 0xbd,
  0xcf, 0xe3, 0xed, 0xbd, 0x64, 0xb4, 0x20, 0x3d, 0x1d, 0x57, 0xa9, 0xbd,
  0x3d, 0x40, 0xb3, 0xbd, 0x3d, 0x73, 0x28, 0xbd, 0x6a, 0x60, 0x5f, 0x3d,
  0xc7, 0x8d, 0x86, 0x3d, 0xc6, 0xe0, 0xbe, 0xbd, 0x9b, 0xfc, 0x96, 0xbd,
  0xa3, 0xa8, 0x62, 0x3d, 0x39, 0xc2, 0x01, 0x3e, 0x38, 0xdb, 0x26, 0xbe,
  0xbc, 0x35, 0x74, 0x3d, 0xf5, 0x69, 0xaa, 0x3c, 0xa3, 0xc4, 0x49, 0x3e,
  0x47, 0xaa, 0x00, 0x3c, 0x46, 0x65, 0x19, 0x3d, 0xdb, 0x27, 0x07, 0x3c,
  0xc3, 0x4e, 0x62, 0xbe, 0xc5, 0xf6, 0xbe, 0xbd, 0xc9, 0x97, 0x2e, 0xbe,
  0x8d, 0x5b, 0x21, 0xbe, 0x0f, 0x9a, 0x83, 0x3d, 0x1d, 0xd2, 0xd6, 0x3a,
  0x2e, 0x76, 0x11, 0xbe, 0x0c, 0x74, 0xb8, 0xbc, 0x78, 0x25, 0x18, 0x3e,
  0x5d, 0x60, 0x2c, 0x3e, 0x1d, 0xc0, 0x1b, 0xbe, 0x2a, 0x8d, 0xb2, 0xbd,
  0x64, 0xea, 0x27, 0xbd, 0xa6, 0xaa, 0x0f, 0x3e, 0x51, 0x90, 0xcf, 0xbd,
  0xe4, 0x72, 0xb7, 0xbd, 0x34, 0x5d, 0x43, 0xbe, 0x97, 0xb3, 0x39, 0xbd,
  0x70, 0xfe, 0x77, 0x3c, 0x79, 0x11, 0xe4, 0xbd, 0x52, 0xd2, 0xf4, 0xbc,
  0x0a, 0xc2, 0x75, 0xbe, 0xbc, 0x6c, 0xa0, 0x3d, 0x70, 0x61, 0x48, 0xbd,
  0x82, 0x6f, 0x13, 0xbd, 0xc0, 0xe7, 0x58, 0x3d, 0x98, 0xff, 0xd0, 0x3d,
  0x01, 0x48, 0x65, 0x3e, 0x0b, 0x24, 0x6f, 0x3e, 0x14, 0xab, 0x40, 0x3e,
  0x6e, 0xe2, 0xf4, 0xbd, 0x5e, 0x4b, 0x25, 0x3e, 0x82, 0x11, 0x06, 0xbd,
  0x25, 0x27, 0x1b, 0x3d, 0x84, 0x91, 0x47, 0xbe, 0xad, 0x55, 0x7a, 0x3d,
  0x92, 0x93, 0xfa, 0x3d, 0x7d, 0x2f, 0x3c, 0x3e, 0xb1, 0x0a, 0xf9, 0x3d,
  0xc8, 0xc9, 0x21, 0x3c, 0xc2, 0x13, 0xec, 0x3d, 0x40, 0x55, 0xa8, 0xbc,
  0x4a, 0xc2, 0xe8, 0xbc, 0x85, 0xfe, 0x06, 0xbe, 0xa6, 0x87, 0x14, 0xbe,
  0xe6, 0x99, 0xe7, 0x3d, 0x26, 0xfe, 0x21, 0xbe, 0x41, 0xe1, 0x34, 0xb9,
  0x60, 0xb1, 0x26, 0x3d, 0xa0, 0xe7, 0x33, 0xbd, 0xaa, 0x30, 0x49, 0x3e,
  0xf2, 0x12, 0x30, 0xbd, 0xd6, 0x27, 0x3f, 0xbd, 0x8f, 0x50, 0xe3, 0x3d,
  0xd3, 0x6d, 0x6d, 0x3e, 0x15, 0x8e, 0x88, 0x3d, 0x22, 0xcf, 0xa0, 0xbd,
  0xef, 0xf9, 0x4c, 0x3d, 0x39, 0xff, 0x10, 0x3e, 0x09, 0xcf, 0x99, 0x3b,
  0x98, 0x0f, 0x19, 0x3e, 0x59, 0x98, 0xfc, 0x3d, 0x02, 0x98, 0xb5, 0xbb,
  0xda, 0x0f, 0x06, 0x3e, 0x89, 0xc7, 0x49, 0x3c, 0xf9, 0xe0, 0x26, 0xbe,
  0x62, 0x59, 0x5c, 0x3d, 0xd6, 0xb1, 0xdd, 0xbd, 0x8a, 0xc1, 0x1b, 0x3e,
  0x47, 0x15, 0x1f, 0xbe, 0xdd, 0x52, 0x59, 0xbd, 0x3e, 0xb1, 0x33, 0xbd,
  0x23, 0x80, 0x02, 0xbe, 0x45, 0xdf, 0x48, 0xbd, 0x92, 0x25, 0x21, 0xbe,
  0x5e, 0xef, 0x52, 0x3c, 0x3a, 0xa1, 0x51, 0xbd, 0x7d, 0xe6, 0x1d, 0xbc,
  0x30, 0x64, 0x84, 0xbd, 0xd2, 0x82, 0x28, 0x3c, 0x2f, 0x98, 0x43, 0x3e,
  0x83, 0x6f, 0x57, 0x3e, 0xc9, 0x13, 0xf3, 0x3d, 0xcd, 0x4d, 0xf6, 0xbd,
  0xee, 0x96, 0x54, 0x3d, 0xb3, 0x90, 0xdb, 0xbd, 0xe1, 0x21, 0x51, 0xbd,
  0x1b, 0xed, 0x20, 0xbe, 0x62, 0x10, 0x00, 0x3d, 0xf1, 0xbe, 0x8f, 0xbd,
  0x16, 0x6d, 0xb2, 0x3c, 0xb5, 0x94, 0x0d, 0x3e, 0x61, 0x14, 0xa5, 0xbd,
  0x5c, 0x82, 0x5e, 0xbe, 0xb0, 0xc6, 0x1c, 0xbe, 0x0c, 0x4a, 0xd2, 0x3c,
  0xe4, 0x1c, 0xca, 0xbd, 0xe1, 0x66, 0x79, 0xbc, 0xc1, 0xac, 0x00, 0xbe,
  0xbd, 0xa9, 0xc6, 0x3d, 0xd3, 0x88, 0xca, 0x3c, 0x9b, 0x11, 0xc6, 0x3d,
  0x4b, 0xe4, 0xfb, 0xbc, 0xa2, 0x0c, 0xdd, 0xbd, 0x08, 0x54, 0x4b, 0x3d,
  0xb2, 0xa4, 0x67, 0x3d, 0x0c, 0xb9, 0x85, 0x3d, 0x71, 0xac, 0x2b, 0x3d,
  0xe5, 0xf5, 0x55, 0x3e, 0x64, 0x41, 0x27, 0xbd, 0xf2, 0x02, 0xa0, 0x3d,
  0x99, 0xd7, 0x1b, 0x3d, 0xab, 0xa2, 0xee, 0xbd, 0xc5, 0x82, 0x37, 0x3d,
  0xd3, 0x09, 0xf6, 0xbb, 0xa4, 0x08, 0x62, 0xbc, 0x80, 0x8e, 0x2e, 0xbe,
  0x83, 0x11, 0x1e, 0xbe, 0xa7, 0x68, 0x04, 0x3d, 0x76, 0x95, 0xfc, 0x3c,
  0x61, 0x24, 0x84, 0xbd, 0x51, 0xab, 0x65, 0xbc, 0xe8, 0xf0, 0x88, 0xbd,
  0xf1, 0x36, 0xf4, 0x3d, 0xc6, 0x4f, 0xcc, 0x3c, 0x4e, 0x74, 0xc1, 0xbc,
  0x8f, 0xe9, 0x11, 0xbe, 0x2e, 0x3a, 0x79, 0xbd, 0xdc, 0xef, 0xa7, 0xbd,
  0xea, 0x68, 0xba, 0x3d, 0x72, 0x41, 0x64, 0xbe, 0x9d, 0x9c, 0xf0, 0x3c,
  0x38, 0x64, 0xe8, 0x3c, 0xc2, 0x00, 0x2c, 0xbe, 0xe4, 0x42, 0x57, 0xbd,
  0x87, 0x8c, 0x95, 0xbd, 0x76, 0x56, 0xd9, 0x3d, 0x9f, 0xdb, 0x9f, 0x3d,
  0xb7, 0x92, 0x26, 0x3e, 0xe5, 0xab, 0xd1, 0xbd, 0xca, 0x38, 0x08, 0xbd,
  0x9d, 0x56, 0x8a, 0x3d, 0xed, 0xc7, 0x34, 0xbd, 0xf7, 0xcb, 0xc8, 0x3c,
  0x3d, 0x84, 0xdb, 0xbd, 0x73, 0x5a, 0x87, 0x3d, 0x0e, 0x7b, 0xdc, 0xbd,
  0x53, 0x40, 0x7e, 0x3d, 0xac, 0x3a, 0x7b, 0xbd, 0xbd, 0x2c, 0xa3, 0x3d,
  0x2b, 0xb8, 0x02, 0xbe, 0xfb, 0x5b, 0xce, 0x3d, 0x44, 0x5f, 0x15, 0xbd,
  0x5b, 0x1d, 0x67, 0x3c, 0x54, 0x1e, 0xbe, 0x3d, 0x75, 0xd5, 0x90, 0x3d,
  0x65, 0xad, 0x81, 0x3d, 0xed, 0x46, 0x12, 0xbd, 0x92, 0x12, 0x57, 0x3d,
  0x34, 0x65, 0x5f, 0xbe, 0x05, 0xff, 0xf2, 0x3c, 0xab, 0x0e, 0xc2, 0xbc,
  0xe3, 0x22, 0x1d, 0xbd, 0x96, 0xce, 0xda, 0x3d, 0x05, 0xd7, 0x19, 0xbd,
  0x52, 0x84, 0xbf, 0x3d, 0x6b, 0xd9, 0xe8, 0xbd, 0x39, 0xa7, 0x0e, 0x3e,
  0x16, 0x50, 0x9b, 0x3d, 0x53, 0x68, 0x88, 0xbe, 0x05, 0x75, 0xad, 0xbb,
  0x86, 0x51, 0x16, 0xbe, 0x2b, 0x19, 0x9a, 0xbb, 0x1d, 0x13, 0x07, 0x3d,
  0xb8, 0xdd, 0x73, 0xbd, 0xf2, 0xd3, 0x1c, 0x3d, 0x39, 0x7c, 0x0c, 0x3d,
  0x93, 0xca, 0x27, 0xbd, 0x30, 0xaa, 0xb5, 0xbd, 0xac, 0x48, 0x16, 0x3e,
  0x65, 0x30, 0x45, 0xbd, 0xb3, 0x60, 0xa5, 0xbc, 0x62, 0x81, 0x3a, 0x3e,
  0x59, 0x8d, 0x15, 0x3e, 0xa1, 0x74, 0x41, 0x3d, 0x4f, 0x97, 0x26, 0xbe,
  0x82, 0xd3, 0x3d, 0x3e, 0x16, 0x6c, 0x2d, 0x3e, 0x4d, 0x4c, 0x88, 0xbc,
  0x65, 0xde, 0x4f, 0xbe, 0x9d, 0x6a, 0xe2, 0x3d, 0x8b, 0x5a, 0xba, 0xbd,
  0x0d, 0x51, 0x0d, 0xbe, 0xa9, 0xe6, 0x23, 0x3e, 0x85, 0x82, 0xcf, 0xbd,
  0x4e, 0x9f, 0x16, 0x3e, 0x94, 0xc7, 0xf4, 0x3d, 0x16, 0x97, 0x83, 0xbc,
  0x38, 0x18, 0x7b, 0x3e, 0xca, 0xe0, 0x2e, 0x3e, 0xb9, 0x6f, 0x87, 0xbc,
  0x30, 0x1d, 0xdb, 0xbd, 0x58, 0x68, 0x31, 0x3d, 0xf0, 0xae, 0x6b, 0x3e,
  0x27, 0x7a, 0x43, 0x3e, 0x2a, 0xfb, 0xa6, 0x3d, 0xc1, 0xc9, 0x1a, 0x3d,
  0xcd, 0xa1, 0x01, 0xbd, 0xc5, 0xa2, 0x45, 0xbe, 0x29, 0x52, 0x2e, 0xbe,
  0xcc, 0x81, 0x77, 0x3e, 0x72, 0x3e, 0x6d, 0x3d, 0xa5, 0x06, 0x09, 0x3e,
  0xfd, 0xea, 0xd6, 0x3c, 0x78, 0x3e, 0x1c, 0x3e, 0x7b, 0x9f, 0x19, 0x3e,
  0x21, 0x04, 0xec, 0xbd, 0xd5, 0x13, 0x94, 0xbc, 0x63, 0xa5, 0x37, 0x3d,
  0x4e, 0x26, 0xc2, 0x3d, 0x17, 0x08, 0xc8, 0xbc, 0xcd, 0xbe, 0x87, 0xbd,
  0x5c, 0x1e, 0x57, 0xbe, 0xb3, 0x91, 0x61, 0xbe, 0x03, 0xf0, 0x59, 0x3e,
  0x08, 0x99, 0x14, 0xbe, 0xe5, 0x05, 0x3d, 0xbd, 0xf8, 0x4f, 0xef, 0xbb,
  0xc7, 0xc4, 0xde, 0x3d, 0xdc, 0x37, 0x4f, 0xbd, 0x7d, 0xd7, 0xaf, 0xbd,
  0xd4, 0x55, 0xf0, 0xbc, 0x63, 0xc7, 0x6e, 0x3e, 0x15, 0x6b, 0x78, 0xbd,
  0xe4, 0x29, 0xac, 0x3d, 0x3d, 0xbf, 0xd7, 0xbc, 0x3a, 0xda, 0x43, 0xbe,
  0x4b, 0xb9, 0xa7, 0x3b, 0xc3, 0x84, 0x52, 0x3d, 0x5d, 0x4e, 0x7a, 0x3e,
  0xfc, 0xa4, 0x7a, 0x3d, 0x88, 0x34, 0x9f, 0xbd, 0x47, 0x67, 0x65, 0xbe,
  0x96, 0xb5, 0x03, 0xbb, 0xf4, 0x4a, 0x77, 0xbe, 0xd7, 0xb8, 0xc2, 0xbd,
  0x1f, 0x93, 0x9a, 0x3c, 0xba, 0xb5, 0x7a, 0xbd, 0x01, 0x4d, 0x04, 0x3d,
  0x64, 0x63, 0x05, 0xbd, 0x99, 0x35, 0xfc, 0x3c, 0x7f, 0x89, 0x39, 0x38,
  0xc2, 0xbc, 0x32, 0xbe, 0x85, 0xbc, 0x32, 0xbe, 0x2f, 0x16, 0xb4, 0xbd,
  0xd0, 0xeb, 0x76, 0x3d, 0xc8, 0xb1, 0xbf, 0xbd, 0xbc, 0xa4, 0x90, 0xbd,
  0xfc, 0x2b, 0x5a, 0x3d, 0x6f, 0x8a, 0x83, 0x3d, 0x13, 0x59, 0x7d, 0xbb,
  0x58, 0x03, 0x3c, 0xbd, 0xe3, 0xd9, 0xdd, 0xbd, 0x6e, 0x2a, 0xe9, 0x3c,
  0x2d, 0xc3, 0xe6, 0x3d, 0x7e, 0xc9, 0xf8, 0xbd, 0x61, 0x3d, 0x34, 0xbd,
  0x2a, 0xee, 0x70, 0xbd, 0xc6, 0x6e, 0xf3, 0xbd, 0xec, 0x75, 0xb7, 0xbc,
  0xc2, 0x49, 0x14, 0xbe, 0x1a, 0xce, 0x5c, 0xbc, 0x4c, 0xdb, 0xcc, 0x3c,
  0x06, 0x7f, 0x35, 0x3e, 0x25, 0x88, 0x33, 0xbe, 0x6f, 0x74, 0xc9, 0xbd,
  0xc5, 0xeb, 0x2e, 0x3e, 0xe2, 0x9c, 0x14, 0xbe, 0x4e, 0x43, 0x09, 0x3e,
  0x25, 0xb5, 0x5f, 0x3e, 0x8c, 0xfe, 0x23, 0x3d, 0x6a, 0x58, 0x49, 0x3e,
  0x6b, 0x76, 0x6d, 0xbc, 0x14, 0x7c, 0x8d, 0xbc, 0x9b, 0x8b, 0xbf, 0xbc,
  0xbe, 0xb7, 0xc5, 0xbd, 0x1b, 0xa2, 0x94, 0xbc, 0x95, 0x0b, 0x64, 0xbd,
  0xd9, 0xfc, 0x09, 0xbe, 0x2e, 0x30, 0xe3, 0x3c, 0xa6, 0xe6, 0xea, 0xbc,
  0x52, 0xfb, 0x2b, 0x3e, 0x82, 0x53, 0x93, 0xbc, 0x8d, 0x24, 0x0e, 0xbe,
  0x9e, 0xa9, 0xc4, 0xbd, 0xdd, 0xe5, 0x2b, 0x3d, 0xfb, 0xdc, 0x34, 0x3e,
  0x09, 0x51, 0x83, 0x3d, 0xc8, 0x00, 0x0c, 0xbe, 0x76, 0x1f, 0xe1, 0x3d,
  0x7f, 0x55, 0xd3, 0x3a, 0x8c, 0x34, 0xda, 0x3d, 0xb3, 0xe7, 0x10, 0x3e,
  0x6a, 0x09, 0x1e, 0xbe, 0xe0, 0x7a, 0xca, 0x3d, 0x21, 0x8f, 0x04, 0xbd,
  0x7f, 0xd2, 0x09, 0x3e, 0x86, 0xe8, 0x36, 0xbd, 0xbd, 0x0d, 0xcd, 0xbb,
  0x84, 0xfc, 0x98, 0x3d, 0x7d, 0x3a, 0x88, 0xbc, 0x7c, 0x36, 0x5e, 0xbe,
  0xd5, 0xfc, 0x94, 0xbd, 0x0a, 0x80, 0xdb, 0x3d, 0x38, 0xbd, 0xbb, 0xbd,
  0x4a, 0x40, 0x81, 0xbe, 0xd5, 0x10, 0x0b, 0x3c, 0xbd, 0xf5, 0xae, 0xbd,
  0x7c, 0x23, 0x42, 0xbd, 0xe9, 0xd3, 0x3f, 0xba, 0x0c, 0xcf, 0xfb, 0xbd,
  0x64, 0xa3, 0x58, 0x3e, 0x97, 0xa7, 0x1b, 0xbe, 0x6c, 0x1a, 0xca, 0xbd,
  0x03, 0xbf, 0x2e, 0x3e, 0xc4, 0xd6, 0xa7, 0xbd, 0x69, 0xab, 0x43, 0xbe,
  0xed, 0x47, 0x9d, 0x3d, 0x76, 0x5e, 0x3c, 0x3d, 0x58, 0x8c, 0x8b, 0xbc,
  0xe4, 0x1f, 0x96, 0x3d, 0x95, 0xfd, 0xe6, 0x3d, 0x15, 0x82, 0xfd, 0xbd,
  0x24, 0x10, 0xc6, 0xbd, 0xe7, 0xb2, 0xc2, 0x3d, 0x54, 0x7c, 0x20, 0xbd,
  0x5c, 0x37, 0x3a, 0xbe, 0xc5, 0x9d, 0x19, 0xbe, 0x60, 0x53, 0xa0, 0xbd,
  0xa3, 0x57, 0x20, 0xbe, 0x87, 0x70, 0xca, 0x3d, 0x9b, 0x44, 0x80, 0x3c,
  0x8b, 0xc6, 0x17, 0x3e, 0x9c, 0xa2, 0xf1, 0x3d, 0xbf, 0xea, 0x2b, 0x3e,
  0x29, 0x91, 0xed, 0xbd, 0x60, 0x95, 0x2e, 0xbe, 0x36, 0x29, 0xd6, 0x3d,
  0x62, 0x2c, 0x13, 0xbd, 0x6f, 0xbc, 0xff, 0x3c, 0x4c, 0xea, 0x2d, 0x3e,
  0xc6, 0xdf, 0x3a, 0x3e, 0x0b, 0x13, 0x74, 0x3d, 0x88, 0x88, 0x58, 0xbd,
  0x43, 0x08, 0x8f, 0x3d, 0x66, 0x6e, 0xb8, 0xbd, 0x6f, 0x78, 0x34, 0xbe,
  0xa1, 0xbe, 0x38, 0x3d, 0x63, 0xf3, 0x97, 0xbd, 0x72, 0xe9, 0xcd, 0x3c,
  0xfd, 0x4c, 0x1e, 0xba, 0xa5, 0x7c, 0x82, 0x3d, 0x42, 0xcd, 0xa2, 0x3d,
  0xc0, 0x59, 0x95, 0xbd, 0xd2, 0x78, 0x7d, 0x3d, 0x90, 0xfc, 0xd1, 0x3d,
  0xae, 0x99, 0x11, 0x3d, 0xe2, 0x66, 0x42, 0xbd, 0xa5, 0x04, 0xb1, 0x3d,
  0x35, 0x14, 0x4e, 0xbe, 0x41, 0xe1, 0xf9, 0x3d, 0x2d, 0x00, 0x9d, 0xbc,
  0xd6, 0xb7, 0x8d, 0x3d, 0x39, 0x7e, 0xc7, 0xbd, 0xc3, 0xf5, 0x53, 0x3d,
  0x1a, 0x10, 0x1c, 0x3e, 0x8d, 0xe3, 0x3e, 0xbe, 0xe5, 0x6a, 0x1a, 0xbd,
  0x46, 0x65, 0x30, 0x3e, 0x4f, 0x81, 0xc9, 0x3d, 0xe3, 0xfd, 0xbe, 0x3c,
  0x0c, 0x36, 0xae, 0x3d, 0x6e, 0xd7, 0x4a, 0x3d, 0x6a, 0xa3, 0xd0, 0x3a,
  0x1e, 0xf7, 0x55, 0x3d, 0x81, 0xaf, 0x88, 0x3e, 0x86, 0xe6, 0xc3, 0x3d,
  0xc3, 0x9a, 0xa2, 0xbd, 0x72, 0x80, 0x59, 0x3c, 0x8e, 0x0b, 0x52, 0x3c,
  0xef, 0x06, 0x14, 0xbe, 0xb8, 0x6f, 0x27, 0xbd, 0xa1, 0x88, 0x4f, 0xbe,
  0xfe, 0xf7, 0x4d, 0xbc, 0x85, 0x46, 0x34, 0x3d, 0xcf, 0x40, 0x92, 0x3d,
  0xd8, 0x2a, 0x08, 0xbd, 0xab, 0x26, 0x81, 0xbc, 0xcf, 0xe9, 0x2e, 0xbe,
  0x06, 0xde, 0xbf, 0x3d, 0xb2, 0xc5, 0x9e, 0x3d, 0x0d, 0x12, 0xea, 0xbd,
  0x53, 0x81, 0x7e, 0x3e, 0x6f, 0x93, 0x07, 0xbd, 0x25, 0x2c, 0x30, 0xbe,
  0x8d, 0x18, 0x34, 0xbe, 0xfa, 0x16, 0x81, 0x3d, 0xa5, 0x38, 0x3a, 0x3c,
  0xda, 0x85, 0x8d, 0x3d, 0x71, 0x35, 0x0b, 0xbd, 0x7b, 0xf9, 0x28, 0x3e,
  0x4a, 0x52, 0x80, 0x3d, 0x3d, 0xef, 0xcc, 0x3d, 0xcc, 0xc8, 0x0d, 0x3e,
  0xe7, 0xd9, 0xbd, 0x3d, 0x1c, 0xef, 0x18, 0xbe, 0xef, 0xdd, 0x1c, 0x3b,
  0x36, 0xb2, 0x10, 0x3e, 0x90, 0x56, 0x07, 0x3e, 0x33, 0xd6, 0x9d, 0x3c,
  0x90, 0x36, 0x28, 0xbe, 0x14, 0xeb, 0x46, 0x3e, 0xc0, 0x2a, 0xab, 0x3d,
  0x50, 0x0b, 0x50, 0x3c, 0x62, 0xe0, 0x4f, 0xbe, 0xae, 0xeb, 0x29, 0x3e,
  0xb2, 0x0b, 0xc3, 0xbd, 0x11, 0x58, 0xdc, 0x3c, 0x5b, 0x3d, 0xd7, 0x3c,
  0x50, 0xbc, 0x14, 0x3e, 0x4c, 0xac, 0x6d, 0x3d, 0xf4, 0x0e, 0x39, 0x3d,
  0xee, 0x5a, 0x46, 0xbd, 0x07, 0x6b, 0x0f, 0xbb, 0x1d, 0x7b, 0xd8, 0x3d,
  0xf6, 0x5b, 0x23, 0xbe, 0xb8, 0x0f, 0xea, 0x3d, 0x9c, 0xc1, 0x6f, 0xbe,
  0xc4, 0x28, 0x02, 0xbd, 0x16, 0x21, 0xe0, 0xbd, 0xcb, 0xf4, 0xdd, 0xbd,
  0xfa, 0xf6, 0x3c, 0xbe, 0x06, 0x78, 0x28, 0x3e, 0xb1, 0xc3, 0xbf, 0xbd,
  0x60, 0x9c, 0x6b, 0xbc, 0x60, 0xc2, 0x8d, 0xbd, 0xb1, 0xae, 0x5c, 0x3d,
  0xf5, 0x75, 0x30, 0xbe, 0xeb, 0x24, 0xa4, 0xbd, 0x57, 0xd5, 0x18, 0xbe,
  0x04, 0x45, 0x2e, 0xbe, 0x8e, 0x0b, 0xb8, 0x3d, 0xa3, 0xe5, 0xb6, 0x3d,
  0x66, 0x32, 0xa3, 0x3d, 0xea, 0x11, 0x40, 0x3e, 0x32, 0x62, 0xa7, 0x3d,
  0xdf, 0xe3, 0x17, 0x3d, 0x72, 0x18, 0x83, 0x3c, 0xac, 0x26, 0x2a, 0x3e,
  0x79, 0xdf, 0x20, 0xbe, 0x62, 0xb9, 0x29, 0xbd, 0x5e, 0xab, 0x49, 0x3e,
  0x89, 0x67, 0x02, 0xbc, 0x95, 0x18, 0x00, 0x3e, 0xf2, 0xf6, 0x2a, 0xbd,
  0x82, 0x7a, 0x89, 0xbd, 0x77, 0x74, 0x12, 0xbe, 0x0e, 0x5a, 0xbe, 0xbc,
  0xf0, 0x01, 0x50, 0xbe, 0xb5, 0x5a, 0x2a, 0x3e, 0x9d, 0xc2, 0xa6, 0x3d,
  0x2e, 0x69, 0x1c, 0xbe, 0x02, 0x07, 0x3f, 0x3e, 0x2f, 0x26, 0x8f, 0x3c,
  0x3c, 0x66, 0xa0, 0xbd, 0x4f, 0xf4, 0xa4, 0xbd, 0xb5, 0x5d, 0x6a, 0x3d,
  0x7b, 0x34, 0x92, 0x3c, 0xa0, 0x8b, 0x14, 0xbe, 0xe6, 0xb8, 0x03, 0x3e,
  0x4b, 0x10, 0x77, 0x3d, 0x11, 0x86, 0xa1, 0x3d, 0xce, 0x83, 0x05, 0x3e,
  0xfe, 0x80, 0x60, 0xbd, 0x62, 0xc9, 0x87, 0x3d, 0x03, 0x76, 0x6a, 0x3e,
  0x7d, 0x8c, 0x49, 0x3e, 0x9f, 0x98, 0x0e, 0xbb, 0x3b, 0x6c, 0xdb, 0x3d,
  0x7d, 0xb5, 0x71, 0xbe, 0x8b, 0x9c, 0x28, 0xbe, 0xc6, 0xe2, 0x34, 0xbe,
  0x35, 0xa9, 0xa0, 0xbc, 0xd5, 0xcb, 0x03, 0x3e, 0xac, 0xbd, 0x00, 0x3d,
  0x62, 0x7e, 0xc6, 0x3c, 0xbf, 0x8a, 0x8f, 0xbd, 0xda, 0x3b, 0xb0, 0x3d,
  0x72, 0x1a, 0x5c, 0x3d, 0xb9, 0xa3, 0xfc, 0xbc, 0x3c, 0xd1, 0xb8, 0xbc,
  0x73, 0x56, 0xbd, 0x3d, 0x72, 0x9b, 0x6c, 0x3d, 0x96, 0x82, 0x70, 0xbc,
  0xff, 0xbc, 0xb1, 0xbd, 0xa8, 0x8f, 0x8e, 0x3d, 0x39, 0x93, 0xf3, 0x3d,
  0x1a, 0x21, 0x01, 0x3e, 0x0d, 0x80, 0x22, 0xbe, 0xe1, 0x49, 0x9b, 0xbd,
  0x39, 0xdf, 0x4c, 0x3d, 0xa5, 0x0a, 0xa1, 0xbd, 0x89, 0x8e, 0xb0, 0xbd,
  0x2a, 0xe2, 0x06, 0x3d, 0x77, 0xeb, 0x32, 0x3e, 0x74, 0x40, 0xb4, 0xbb,
  0xd7, 0xac, 0xc2, 0x3c, 0x77, 0x54, 0x7b, 0x3d, 0x0f, 0xb3, 0xd8, 0x3b,
  0x98, 0x22, 0xf4, 0xbd, 0x95, 0x54, 0xca, 0xbd, 0xaa, 0x92, 0x62, 0x3e,
  0xee, 0x41, 0x3c, 0xbe, 0xc4, 0xf4, 0x04, 0xbd, 0x3e, 0x4a, 0x1d, 0x3e,
  0x58, 0xbc, 0x23, 0xbe, 0x9f, 0xa1, 0x13, 0x3d, 0xd0, 0xe4, 0xe1, 0xbd,
  0x59, 0x35, 0xe6, 0x3d, 0xf4, 0xa5, 0xf2, 0xbd, 0xbd, 0x73, 0x5d, 0x3d,
  0xd5, 0x12, 0x14, 0x3e, 0xa8, 0x35, 0x9c, 0x3d, 0xbe, 0x3c, 0x1b, 0x3d,
  0x98, 0x22, 0xbc, 0x3b, 0x01, 0x2b, 0x87, 0x3d, 0x79, 0xbc, 0x6f, 0x3d,
  0x26, 0x81, 0xc9, 0xbd, 0x31, 0xd6, 0x88, 0x3d, 0xd7, 0xf3, 0x58, 0xbe,
  0x46, 0x89, 0x8b, 0xbd, 0x88, 0x3b, 0x24, 0x3e, 0x23, 0x44, 0xd4, 0xbd,
  0x7f, 0xca, 0x61, 0x3d, 0xa8, 0x96, 0xea, 0x3c, 0xf2, 0x51, 0x32, 0x3e,
  0xc1, 0x2d, 0x2f, 0x3d, 0xe6, 0x95, 0xc7, 0xbd, 0x2c, 0xa2, 0xba, 0x3b,
  0x52, 0xba, 0x4e, 0x3d, 0x0e, 0x3a, 0xc5, 0x3d, 0xbb, 0xbb, 0xa0, 0xbd,
  0xc2, 0x38, 0xfc, 0x39, 0x1e, 0x52, 0x10, 0xbe, 0x3b, 0x84, 0x31, 0xbd,
  0xf2, 0x5d, 0x69, 0xbc, 0x1b, 0xac, 0x39, 0x3e, 0x66, 0x45, 0x08, 0x3e,
  0x51, 0x2d, 0x86, 0x3c, 0xf4, 0xbf, 0x57, 0xbe, 0xf3, 0xb4, 0xa0, 0x3d,
  0x91, 0x37, 0x18, 0xbc, 0xfa, 0x18, 0x19, 0xbe, 0x65, 0xdc, 0xde, 0x3c,
  0x83, 0xf1, 0x04, 0xbe, 0x7e, 0xbb, 0x24, 0xbe, 0xc6, 0x31, 0x83, 0x3d,
  0xa6, 0xc9, 0x39, 0x3e, 0x2b, 0x0a, 0x8c, 0xbd, 0x9b, 0x0b, 0x42, 0xbe,
  0xf5, 0x3f, 0xd4, 0x39, 0x1f, 0x21, 0xb5, 0xbd, 0xc5, 0x73, 0x13, 0xbe,
  0xbd, 0x48, 0xf0, 0xbd, 0x12, 0x79, 0xb5, 0xbd, 0x97, 0xd9, 0x04, 0xbd,
  0x97, 0xd4, 0xfd, 0xbd, 0xfa, 0x01, 0x50, 0x3d, 0xd5, 0xcf, 0x5c, 0xbe,
  0xf7, 0x1e, 0x83, 0x3e, 0x7b, 0x2e, 0x6b, 0xbd, 0x77, 0xb7, 0x54, 0xbd,
  0xf5, 0x8e, 0x58, 0xbe, 0x9d, 0x56, 0xf7, 0xbc, 0xc0, 0xdd, 0x8f, 0xbd,
  0xb8, 0x89, 0x10, 0xbe, 0x99, 0x52, 0x00, 0xbe, 0x9c, 0x7f, 0xdc, 0xbd,
  0xbf, 0x06, 0x3c, 0x3d, 0xc3, 0x2e, 0x78, 0x3d, 0xaa, 0xa9, 0x1b, 0xbe,
  0x4a, 0x5e, 0xe7, 0x3d, 0xfb, 0x59, 0x6d, 0x3d, 0xc3, 0x51, 0x9e, 0xbd,
  0x08, 0x9b, 0x66, 0xbc, 0x55, 0xbf, 0x15, 0x3e, 0x96, 0x3e, 0x44, 0x3d,
  0x6b, 0xd7, 0x81, 0xbd, 0x5e, 0xe6, 0x40, 0xbe, 0x2c, 0x49, 0x93, 0xbc,
  0x50, 0x8c, 0x50, 0xbc, 0xdd, 0x95, 0x67, 0x3d, 0xc7, 0x2e, 0x41, 0x3e,
  0x77, 0x3b, 0x74, 0xbe, 0xa0, 0x77, 0xff, 0x3d, 0xf9, 0x3a, 0x1a, 0xbe,
  0xf8, 0x70, 0x7b, 0xbe, 0xbd, 0xaa, 0x39, 0xbb, 0xa5, 0xab, 0x85, 0xbd,
  0xdd, 0xba, 0x9a, 0xbc, 0x74, 0x90, 0x51, 0x3c, 0xa7, 0x53, 0x4a, 0xbd,
  0x69, 0x49, 0x13, 0xbb, 0x78, 0xe5, 0x7c, 0x3e, 0xb8, 0xad, 0xd2, 0xbd,
  0xbf, 0xf6, 0xc8, 0x3d, 0xbc, 0xaa, 0x47, 0xbd, 0xc6, 0xda, 0xd9, 0x3d,
  0x10, 0xaa, 0xd3, 0xbd, 0x74, 0x56, 0x7a, 0x3e, 0x45, 0x98, 0xdc, 0x3c,
  0x13, 0xa5, 0xab, 0x3d, 0x7f, 0x1a, 0x0f, 0x3e, 0x70, 0x2f, 0x6d, 0xbd,
  0xa9, 0x0d, 0x6b, 0xbd, 0xae, 0xc6, 0x43, 0x3e, 0x6c, 0xcb, 0x5d, 0x3e,
  0x52, 0xa5, 0x93, 0xbd, 0xe7, 0xc4, 0xc3, 0x3d, 0x9d, 0x6f, 0x1d, 0x3e,
  0xf3, 0x93, 0xae, 0x3d, 0x7a, 0xe8, 0x14, 0xbe, 0x43, 0xb5, 0x0f, 0x3c,
  0x16, 0x9b, 0x3e, 0xbe, 0xa7, 0x9b, 0x5b, 0xbd, 0xe4, 0xbf, 0xef, 0x3d,
  0x97, 0x2d, 0x82, 0x3e, 0x92, 0x05, 0x3c, 0xbd, 0x2c, 0xa9, 0xf7, 0x3d,
  0xf4, 0x46, 0xf7, 0xbd, 0x95, 0x4d, 0x5f, 0xbc, 0xef, 0xf3, 0x41, 0xbd,
  0x2e, 0x35, 0x13, 0xbe, 0xc1, 0xa8, 0x56, 0x3e, 0xc3, 0x8e, 0x7f, 0xba,
  0x7f, 0x69, 0x82, 0xbe, 0xc1, 0x5b, 0x25, 0xbd, 0x78, 0xf8, 0xdc, 0xbd,
  0x35, 0xdc, 0xdf, 0x3c, 0x32, 0xc2, 0x69, 0xbe, 0xa2, 0x83, 0x42, 0xbe,
  0xc6, 0x52, 0x14, 0x3b, 0xa2, 0xc8, 0x62, 0x3c, 0xfa, 0xb6, 0x65, 0x3d,
  0xea, 0x40, 0xe5, 0xbd, 0x88, 0xab, 0x22, 0x3e, 0x62, 0x02, 0x1e, 0x3e,
  0x60, 0xc0, 0x12, 0x3e, 0x86, 0xd8, 0x2e, 0x3e, 0xf8, 0xdc, 0x8a, 0x3d,
  0x13, 0xde, 0x02, 0xbe, 0xf2, 0xe7, 0xa3, 0xbc, 0x00, 0xc6, 0x54, 0x3e,
  0x40, 0xb4, 0xd4, 0x3d, 0xe0, 0x48, 0xf2, 0x3d, 0xd1, 0xaa, 0x5e, 0xbe,
  0x6b, 0xb2, 0x5c, 0x3d, 0x53, 0xff, 0x62, 0x3c, 0x4d, 0x5a, 0x06, 0x3e,
  0x20, 0xb2, 0xdb, 0x3d, 0x5e, 0x73, 0x13, 0xbe, 0xb0, 0x84, 0xbb, 0x3c,
  0x1e, 0x1d, 0x12, 0x3e, 0x89, 0xf8, 0x00, 0x3e, 0x59, 0x01, 0x40, 0x3d,
  0xa8, 0xc4, 0x4a, 0xbc, 0x88, 0x62, 0x74, 0x3d, 0xf8, 0x81, 0x25, 0xbd,
  0x74, 0xc4, 0x09, 0xbd, 0xa8, 0x2c, 0xe6, 0xbc, 0x65, 0x29, 0x95, 0xbd,
  0xa1, 0x99, 0xae, 0x3d, 0xdc, 0xc3, 0x8a, 0xbb, 0x1b, 0x1b, 0x39, 0x3c,
  0x7c, 0x56, 0xad, 0xbd, 0x99, 0xec, 0x28, 0x3e, 0xe0, 0x8f, 0x60, 0x3c,
  0x5f, 0x87, 0x40, 0xbe, 0xd2, 0x30, 0x81, 0x3d, 0x4c, 0x1e, 0xa7, 0xbd,
  0x9b, 0x32, 0x65, 0xbe, 0xbb, 0x25, 0x2a, 0x3e, 0xd6, 0x7f, 0x0b, 0xbe,
  0xf9, 0xd7, 0x6b, 0xbe, 0xed, 0xab, 0x9c, 0x3c, 0x73, 0x8c, 0x89, 0xbd,
  0x06, 0x23, 0xbe, 0xbd, 0xf9, 0x9b, 0x95, 0xbd, 0x47, 0x47, 0x6d, 0x3e,
  0xc9, 0xc7, 0x5d, 0x3d, 0x32, 0x8e, 0xc0, 0xbd, 0x90, 0xac, 0xc5, 0x3c,
  0xcd, 0x7f, 0xc6, 0x3c, 0xb0, 0x1b, 0x2f, 0x3e, 0xe6, 0xb5, 0xd1, 0x3c,
  0xc9, 0x16, 0x1a, 0x3e, 0x88, 0x71, 0x4c, 0xbe, 0x6e, 0xaf, 0x36, 0xbd,
  0xfd, 0x5a, 0xb1, 0x3c, 0x3b, 0x8f, 0x13, 0x3d, 0x81, 0x27, 0x37, 0x3c,
  0xef, 0x23, 0xb2, 0x3d, 0x01, 0x69, 0x4e, 0x3e, 0x5f, 0x79, 0x68, 0x3c,
  0x4a, 0x45, 0xfd, 0x3d, 0x66, 0xd6, 0x14, 0x3b, 0x4a, 0x65, 0x3d, 0xbd,
  0x7e, 0x87, 0x0b, 0xbe, 0x40, 0x6a, 0x52, 0x3c, 0x88, 0x68, 0xbd, 0x3d,
  0xa0, 0x59, 0xb3, 0x3d, 0x52, 0x00, 0x7a, 0x3e, 0xa0, 0x2a, 0xb0, 0xbd,
  0xda, 0xc3, 0x31, 0x3e, 0x61, 0xa3, 0xfe, 0xbc, 0x1a, 0x16, 0xda, 0xbd,
  0x58, 0xeb, 0x9f, 0xbd, 0x2f, 0xdf, 0x3d, 0x3d, 0x80, 0x56, 0xbc, 0x3c,
  0xb7, 0x44, 0x9f, 0x3d, 0xd9, 0xff, 0x92, 0xbd, 0x1a, 0xcf, 0xa0, 0xbd,
  0xe7, 0xf0, 0x51, 0xbe, 0x29, 0xaf, 0x44, 0x3d, 0xc8, 0x72, 0x53, 0xbc,
  0x21, 0xc6, 0x0b, 0xbe, 0x08, 0x36, 0x71, 0xbd, 0x35, 0x7b, 0x11, 0x3d,
  0x81, 0x04, 0xe1, 0xbd, 0x64, 0x2b, 0x96, 0xbc, 0xb1, 0xe3, 0x3c, 0x3e,
  0x13, 0x4c, 0x66, 0xbd, 0xd1, 0xa3, 0x86, 0x3d, 0x8b, 0xef, 0xe3, 0xbb,
  0x25, 0x48, 0x48, 0xbd, 0xf6, 0xd0, 0x17, 0x3e, 0xb4, 0xf7, 0x19, 0xbe,
  0x33, 0x10, 0x32, 0xbd, 0x0e, 0x96, 0xc5, 0x3d, 0xa3, 0xdf, 0xcc, 0xbd,
  0x46, 0xa6, 0x1c, 0x3b, 0x91, 0xff, 0x42, 0x3e, 0x87, 0xcc, 0xc1, 0x3d,
  0xed, 0x25, 0xa6, 0xbc, 0xe3, 0x72, 0x17, 0x3c, 0xf1, 0xe1, 0x82, 0x3d,
  0xe3, 0x4b, 0x46, 0xbe, 0x18, 0xfa, 0x4d, 0xbe, 0x2d, 0xb1, 0x34, 0xbd,
  0xe8, 0x6d, 0x08, 0xbe, 0x3c, 0x1e, 0xd3, 0x3d, 0xba, 0x73, 0x00, 0xbe,
  0x19, 0xf5, 0x51, 0x3d, 0x81, 0xff, 0x2e, 0x3d, 0xd8, 0xc8, 0x48, 0xbe,
  0xa3, 0x09, 0xa6, 0x3d, 0x16, 0xc5, 0xd6, 0x3d, 0x79, 0x1b, 0xdf, 0xbd,
  0xdd, 0xcb, 0x8a, 0x3d, 0x66, 0x18, 0x69, 0x3d, 0x4d, 0xed, 0x07, 0xbd,
  0xce, 0xe7, 0xa2, 0xbc, 0x10, 0xd8, 0xc7, 0xbd, 0xe2, 0x45, 0x9e, 0x3d,
  0x23, 0xaf, 0x21, 0xbe, 0x4b, 0x1a, 0x3b, 0xbd, 0xef, 0x52, 0x03, 0xbe,
  0x0e, 0xe7, 0xc6, 0xbd, 0x58, 0xbb, 0x25, 0x3d, 0x0a, 0xed, 0xed, 0x3d,
  0x51, 0xb7, 0xd0, 0xbc, 0xfd, 0x40, 0x20, 0x3a, 0x09, 0x44, 0x56, 0x3d,
  0x0f, 0x53, 0x8a, 0x3d, 0xb8, 0xf0, 0x1d, 0xbd, 0x70, 0x6d, 0xe1, 0x3c,
  0xcd, 0x33, 0xa8, 0x3d, 0x0e, 0x38, 0x25, 0xbc, 0xba, 0xb9, 0x36, 0x3d,
  0xa7, 0x18, 0xf3, 0xbd, 0x9f, 0x01, 0xe7, 0xbc, 0x67, 0x5b, 0x95, 0x3d,
  0x60, 0x70, 0x9d, 0x3c, 0x3f, 0x73, 0xb1, 0xbd, 0x2c, 0x57, 0x1f, 0xbe,
  0x43, 0x9b, 0x95, 0xbd, 0x0f, 0x9f, 0x6d, 0xbe, 0xe8, 0xdb, 0x1e, 0xbe,
  0x5f, 0xf9, 0x81, 0xbd, 0x3f, 0xe5, 0xcd, 0xbd, 0x05, 0xe0, 0xc8, 0x3d,
  0xeb, 0x46, 0x6f, 0xbd, 0xbc, 0x7d, 0x1d, 0x3e, 0x3a, 0x08, 0x89, 0x3d,
  0x5e, 0xb3, 0x20, 0x3e, 0xf5, 0x71, 0x92, 0xbd, 0x8e, 0xe7, 0x3d, 0x3e,
  0xe9, 0x56, 0x69, 0xbe, 0x8b, 0xce, 0xc8, 0x3d, 0x5c, 0x68, 0x29, 0xbe,
  0xbe, 0xff, 0x3e, 0x3d, 0x22, 0x98, 0x84, 0xbd, 0x92, 0x12, 0x61, 0x3d,
  0x84, 0x8b, 0x9f, 0xbd, 0x7f, 0xdb, 0x67, 0x3e, 0xb6, 0xa1, 0x43, 0x3d,
  0x48, 0x12, 0x83, 0x3b, 0xfd, 0xc8, 0x90, 0xba, 0x10, 0x95, 0x45, 0x3e,
  0x06, 0xed, 0x1f, 0x3e, 0xbb, 0x6e, 0x82, 0x3d, 0x11, 0x47, 0x50, 0x3e,
  0x44, 0xb7, 0xdd, 0x3d, 0x91, 0x26, 0x92, 0x3d, 0x2c, 0x35, 0xe4, 0xbd,
  0xad, 0x7e, 0x54, 0xbe, 0xfa, 0xc0, 0xac, 0x3d, 0xa4, 0x50, 0xc3, 0x3c,
  0xa1, 0x22, 0x88, 0xbd, 0x95, 0x17, 0x25, 0xbc, 0xc4, 0x7b, 0x6d, 0x3d,
  0xaa, 0x24, 0x4b, 0xbe, 0x40, 0xc3, 0x01, 0x3d, 0xd2, 0x4a, 0xf9, 0xbd,
  0xf5, 0x84, 0xf6, 0xbc, 0xa1, 0xa0, 0xf3, 0xbc, 0xc9, 0x3c, 0xc2, 0xbc,
  0x21, 0x7f, 0x0e, 0xbd, 0x52, 0xed, 0xa5, 0xbd, 0x5c, 0x5d, 0xa9, 0xbd,
  0x44, 0x98, 0x03, 0x3d, 0x4a, 0xe1, 0x1b, 0x3e, 0xef, 0x40, 0x54, 0xbd,
  0xbe, 0x63, 0x20, 0x3d, 0xc9, 0x1a, 0x36, 0xbe, 0x66, 0x69, 0x6e, 0x3d,
  0x6f, 0x22, 0xa9, 0x3d, 0x3f, 0x6e, 0x12, 0xbd, 0x2c, 0xb2, 0xac, 0xbd,
  0xda, 0x3b, 0xec, 0x3d, 0x27, 0x4d, 0x80, 0xbc, 0xd9, 0xc4, 0xe2, 0x3b,
  0x21, 0x6c, 0x52, 0x3e, 0xc9, 0x7a, 0xcb, 0xbc, 0x6a, 0xc6, 0xa9, 0xbc,
  0x02, 0xff, 0x87, 0x3d, 0x2f, 0xb8, 0xe5, 0x3d, 0x3b, 0x0e, 0x71, 0x3e,
  0x7b, 0xab, 0x19, 0x3d, 0x53, 0x0d, 0x17, 0xbd, 0x0d, 0x7e, 0x10, 0x3d,
  0x26, 0x9f, 0x17, 0xbe, 0x5e, 0xca, 0x79, 0xbc, 0xd3, 0xe3, 0x9c, 0x3d,
  0x89, 0x6c, 0xe5, 0x3c, 0x35, 0x6f, 0xa6, 0x3d, 0xbc, 0x3b, 0x06, 0xbe,
  0x4e, 0xc4, 0xc4, 0xbd, 0x4b, 0xc3, 0x8b, 0x3d, 0x55, 0xb3, 0x18, 0x3e,
  0xc1, 0x10, 0x80, 0xbc, 0x1e, 0x3a, 0x0f, 0x3e, 0xca, 0xf1, 0x05, 0xbe,
  0x0c, 0x2d, 0x16, 0xbe, 0x2b, 0xac, 0x12, 0xbd, 0x13, 0xd8, 0x25, 0x3c,
  0x1a, 0x97, 0x90, 0xbc, 0x1d, 0x4a, 0xd4, 0xbd, 0xef, 0x6f, 0x71, 0xbe,
  0x87, 0x01, 0xda, 0xbd, 0xce, 0x5b, 0xc9, 0xbd, 0x2f, 0xbe, 0x40, 0x3d,
  0x3b, 0xc0, 0x1b, 0xbd, 0x3f, 0x1c, 0x20, 0xbd, 0x65, 0xf4, 0x44, 0xbe,
  0x40, 0xb9, 0xe2, 0xbd, 0x78, 0xb1, 0x3c, 0xbd, 0x36, 0x6f, 0x35, 0xbe,
  0x26, 0x13, 0x0c, 0xbc, 0x00, 0x4d, 0x7d, 0x3d, 0xfc, 0x2d, 0x7c, 0x3e,
  0xb9, 0x05, 0x2a, 0x3e, 0x03, 0x63, 0x02, 0xbe, 0xe8, 0xed, 0xbb, 0xbd,
  0x10, 0x9b, 0xa9, 0xbc, 0x8d, 0x77, 0xc3, 0xbc, 0x08, 0xb8, 0xd5, 0x3c,
  0xa3, 0x3f, 0x33, 0x3d, 0x67, 0x67, 0xf8, 0xbc, 0x56, 0x3e, 0x2a, 0x3b,
  0xb2, 0xd0, 0xf2, 0xbc, 0xa6, 0x34, 0x8a, 0x3d, 0xc5, 0xe7, 0x0d, 0xbe,
  0x91, 0x30, 0xcc, 0x3d, 0x84, 0x40, 0xc0, 0x3d, 0xac, 0x1d, 0x1c, 0x3e,
  0x0b, 0x8f, 0x55, 0xbe, 0x9b, 0x3b, 0x01, 0xbe, 0xb8, 0x09, 0x96, 0xbd,
  0x18, 0x9e, 0x19, 0xbe, 0x87, 0xef, 0xd3, 0x3d, 0x82, 0x0d, 0xe7, 0x3d,
  0x40, 0x48, 0x5d, 0x3d, 0x7f, 0x7e, 0x38, 0x3c, 0xa4, 0x62, 0xe5, 0xbb,
  0x36, 0xb6, 0x69, 0xbd, 0xc0, 0x21, 0x92, 0x3d, 0xc2, 0xe9, 0x26, 0x3e,
  0x3b, 0x64, 0xf6, 0x3d, 0x17, 0x56, 0x87, 0x3d, 0x0d, 0xc1, 0x73, 0x3d,
  0x32, 0x56, 0x4a, 0xbe, 0xf3, 0xba, 0x45, 0x3c, 0x5b, 0xf2, 0xe6, 0xbd,
  0xb7, 0xb8, 0xf6, 0x3d, 0x9c, 0x47, 0xd0, 0xbd, 0x21, 0x0c, 0x0a, 0xbd,
  0x1c, 0x48, 0xf7, 0xbd, 0xdb, 0x47, 0x06, 0xbc, 0x64, 0x87, 0x31, 0xbc,
  0x4b, 0xbb, 0xd4, 0xbd, 0x72, 0x78, 0xfa, 0xbd, 0x7a, 0x16, 0xbd, 0x3c,
  0x30, 0xb8, 0x19, 0xbd, 0xf2, 0x19, 0x19, 0xbe, 0xf3, 0xdf, 0x8b, 0xbd,
  0x55, 0x3e, 0x86, 0x3d, 0x76, 0x69, 0xe2, 0xbd, 0xe3, 0x0d, 0xe4, 0x3d,
  0xe2, 0xa5, 0x36, 0x3e, 0x6e, 0x76, 0x38, 0x3e, 0xd1, 0x39, 0xd3, 0xbd,
  0x75, 0xf4, 0x09, 0x3e, 0x25, 0x96, 0x2d, 0xbe, 0x90, 0x85, 0x70, 0x3d,
  0x35, 0xac, 0x14, 0xbc, 0xa2, 0x79, 0xec, 0x3c, 0xd0, 0x44, 0xe2, 0xbd,
  0x9a, 0x5e, 0xe1, 0x3d, 0xd5, 0xb9, 0x46, 0x3e, 0xc2, 0x11, 0x99, 0xbd,
  0x1e, 0xd6, 0xd2, 0x3b, 0x17, 0x3b, 0x06, 0x3d, 0x46, 0xcf, 0x7a, 0x3e,
  0x8a, 0x4d, 0x22, 0x3e, 0x1b, 0x18, 0x83, 0xbd, 0xc9, 0xdb, 0xf5, 0x3b,
  0xe6, 0x03, 0x19, 0x3e, 0xc3, 0xbd, 0xd7, 0x3d, 0x75, 0x3c, 0x68, 0xbd,
  0x20, 0xbe, 0x3b, 0x3e, 0x9d, 0x80, 0x3d, 0xbe, 0xa2, 0xbe, 0xbd, 0x3d,
  0xdb, 0x9a, 0x1f, 0xbe, 0x3a, 0xb3, 0x33, 0xbd, 0xa6, 0x9a, 0x32, 0xbe,
  0xe3, 0x73, 0x7e, 0xbe, 0xcc, 0x19, 0x83, 0xbd, 0xac, 0xe3, 0xea, 0xbc,
  0x2b, 0xe5, 0xcf, 0x3d, 0x26, 0x9b, 0xa9, 0x3a, 0xdc, 0x91, 0xdd, 0xbd,
  0x30, 0x86, 0x3e, 0x3e, 0x73, 0x15, 0x07, 0xbe, 0xd4, 0xb7, 0x6e, 0x3e,
  0x10, 0xef, 0x66, 0x3d, 0xc7, 0xba, 0x86, 0xbd, 0x0c, 0xb0, 0xaf, 0x3d,
  0xea, 0xb1, 0xa0, 0x3d, 0x90, 0x8f, 0x52, 0x3e, 0x40, 0xb5, 0x82, 0xbe,
  0x67, 0x79, 0x4a, 0x3d, 0x56, 0x33, 0xd5, 0x3d, 0x94, 0xc8, 0xd7, 0x3d,
  0xb0, 0x34, 0x7e, 0xbd, 0x13, 0x68, 0x1c, 0xbd, 0x30, 0xee, 0x6a, 0x3e,
  0x3c, 0x91, 0xf3, 0xbc, 0x83, 0x0e, 0x49, 0xbe, 0x62, 0xd7, 0x8b, 0x3d,
  0x8a, 0x44, 0x4d, 0xbd, 0x8e, 0x14, 0xbf, 0xbd, 0x41, 0xd2, 0xcb, 0xbc,
  0x79, 0x20, 0x82, 0x3d, 0x94, 0x75, 0xd1, 0x39, 0xd1, 0xd1, 0x13, 0x3d,
  0x7f, 0x31, 0x57, 0xbe, 0x63, 0xa9, 0x44, 0xbc, 0x79, 0xd3, 0xb6, 0x3d,
  0xc1, 0x3f, 0x55, 0x3e, 0x28, 0x48, 0xd9, 0xbb, 0x31, 0xd6, 0x14, 0x3e,
  0xbb, 0x9a, 0x0b, 0x3e, 0x20, 0x62, 0xe0, 0x3d, 0xc6, 0xd4, 0x6d, 0xbd,
  0xd9, 0x05, 0x87, 0xbd, 0x6d, 0xe0, 0x54, 0xbd, 0xc4, 0x92, 0xfa, 0xbd,
  0x69, 0xf0, 0xe1, 0xbc, 0x71, 0xb6, 0xf5, 0x3a, 0x2f, 0xb2, 0x06, 0x3d,
  0xa4, 0x6f, 0x03, 0x3e, 0x04, 0x72, 0x02, 0x3d, 0xc4, 0x29, 0x05, 0xbe,
  0x11, 0x66, 0x9b, 0xbd, 0x13, 0xa4, 0xd9, 0xbd, 0xfd, 0x10, 0x4b, 0x3c,
  0x0d, 0xb7, 0x60, 0x3e, 0x4d, 0x25, 0x58, 0x3c, 0xa6, 0x3f, 0x35, 0x3e,
  0x7f, 0xab, 0x4b, 0xbe, 0x9b, 0x2b, 0xd6, 0x3c, 0x35, 0xe6, 0xc0, 0xbc,
  0x29, 0x61, 0xf3, 0xbc, 0x6b, 0xca, 0x05, 0xbe, 0x95, 0xaf, 0xe6, 0xba,
  0x53, 0x86, 0x65, 0xbe, 0xaf, 0x9f, 0x3e, 0xbe, 0x1b, 0x9a, 0x2b, 0xbe,
  0x28, 0xaa, 0xf7, 0xbd, 0xc9, 0xf8, 0xdb, 0x3d, 0x96, 0x49, 0x02, 0x3e,
  0xab, 0x90, 0x24, 0x3d, 0xf5, 0x79, 0x90, 0xbd, 0x01, 0xa3, 0x42, 0x3d,
  0xc9, 0x48, 0x11, 0xbe, 0x42, 0x41, 0x5a, 0xbd, 0xaf, 0xfb, 0x09, 0xbc,
  0xbb, 0xd6, 0x22, 0xbb, 0x2f, 0x7b, 0xf5, 0xbc, 0xd9, 0xdc, 0x08, 0x3e,
  0x60, 0x43, 0x48, 0x3a, 0x21, 0x20, 0x2f, 0xbd, 0x31, 0x99, 0xcc, 0xbd,
  0xb0, 0x76, 0x49, 0xbe, 0x4d, 0x18, 0x39, 0xbd, 0x65, 0x06, 0xcf, 0xbb,
  0x5b, 0xcb, 0x3b, 0x3d, 0xb6, 0x36, 0xda, 0xbd, 0xe0, 0x45, 0xbc, 0xbd,
  0x3c, 0xf6, 0xa2, 0x3d, 0xf0, 0xb9, 0x26, 0xbe, 0xf3, 0x1b, 0x43, 0x3c,
  0x63, 0x09, 0xdf, 0x3d, 0xd1, 0x7b, 0xbc, 0x3d, 0x1b, 0xf2, 0x3e, 0xbe,
  0x13, 0xa7, 0xac, 0x3d, 0x24, 0x9d, 0x32, 0x3c, 0xce, 0x8b, 0x16, 0xbe,
  0x94, 0x83, 0x09, 0xbc, 0x42, 0x02, 0x5f, 0xbe, 0xe2, 0x9b, 0xab, 0xbd,
  0xf9, 0x3b, 0xee, 0xbd, 0xde, 0xf9, 0x00, 0xbe, 0x50, 0xb0, 0x1b, 0xbe,
  0x5c, 0x56, 0xaa, 0xbc, 0xe0, 0x35, 0x77, 0xbd, 0xab, 0xb5, 0xc1, 0x3a,
  0x1c, 0x51, 0x5e, 0xbd, 0x81, 0x5a, 0x69, 0x3d, 0x95, 0x5d, 0x57, 0xbc,
  0xe0, 0x84, 0x0e, 0xbe, 0xb0, 0x11, 0x15, 0xbd, 0xec, 0x0e, 0x90, 0x3b,
  0x6a, 0x9c, 0xfd, 0x3d, 0x7e, 0x03, 0x4d, 0x3e, 0xa8, 0xf8, 0x92, 0xbd,
  0x46, 0x0d, 0x72, 0x3d, 0x0f, 0x7c, 0x33, 0x3c, 0xbb, 0xfd, 0x23, 0xbd,
  0x40, 0x37, 0x59, 0xbe, 0x21, 0x7f, 0xc3, 0xbd, 0xe4, 0xf0, 0x1c, 0xbd,
  0x3f, 0xe5, 0x03, 0x3d, 0x34, 0x7b, 0x1f, 0x3d, 0x7f, 0x2c, 0x76, 0x3e,
  0x6e, 0x84, 0xad, 0xbd, 0xd0, 0x9d, 0xbd, 0xbd, 0x07, 0x5d, 0x9d, 0x3d,
  0x68, 0x85, 0xc6, 0x3c, 0x4b, 0x8e, 0x3e, 0xbe, 0xfd, 0xa7, 0xc6, 0xbd,
  0x0b, 0xc0, 0x0d, 0xbe, 0x4e, 0x8c, 0xdd, 0x3d, 0xd5, 0xfa, 0x7f, 0x3d,
  0x8d, 0x4a, 0xe3, 0xbc, 0xb8, 0x64, 0x3c, 0xbe, 0xf5, 0xc3, 0xc7, 0xbd,
  0x4d, 0x28, 0xe2, 0x3d, 0x2a, 0x7a, 0x88, 0xbe, 0x63, 0x23, 0xbb, 0x3c,
  0x5e, 0x4b, 0x25, 0xbe, 0x57, 0x23, 0xf0, 0xbd, 0xe0, 0xb9, 0x6f, 0xbb,
  0x8b, 0xcd, 0x42, 0xbd, 0x4f, 0x99, 0xe7, 0xbc, 0xfe, 0xa7, 0x7e, 0xbd,
  0xfd, 0xa4, 0x65, 0xbe, 0x39, 0x65, 0x4e, 0xbe, 0xf4, 0x53, 0x47, 0x3e,
  0x59, 0xa6, 0x9d, 0xbd, 0xcc, 0x80, 0xb9, 0x3d, 0x31, 0xf6, 0x00, 0xbd,
  0xb8, 0x00, 0xa9, 0xbd, 0xe2, 0xa7, 0xa1, 0xbd, 0xbf, 0x05, 0xbb, 0xbd,
  0x14, 0x30, 0x37, 0xbd, 0x4b, 0xfe, 0x5f, 0x3e, 0x11, 0x65, 0x50, 0xbe,
  0x48, 0x9d, 0x55, 0xbe, 0x5f, 0x6f, 0x9f, 0x3d, 0x18, 0x40, 0xb1, 0x3d,
  0xbd, 0x8d, 0x0d, 0x3e, 0xfd, 0xdb, 0x8e, 0xbc, 0xc3, 0xf7, 0x21, 0xbe,
  0x1c, 0x91, 0x09, 0xbd, 0x08, 0x54, 0x95, 0x3c, 0x0d, 0xa3, 0x72, 0xbe,
  0x1d, 0xb6, 0xe5, 0x3d, 0xc0, 0xb8, 0xed, 0xbb, 0xab, 0x5e, 0x6a, 0xbe,
  0xb4, 0xa4, 0x47, 0x3c, 0x58, 0x59, 0x05, 0xbe, 0xf6, 0xdd, 0x4f, 0x3e,
  0x66, 0x79, 0x9d, 0x3d, 0xdf, 0xd6, 0x3c, 0x3e, 0x3c, 0xe6, 0x18, 0xbd,
  0x7c, 0x57, 0x18, 0x3d, 0xca, 0x16, 0x10, 0x3e, 0x2f, 0xea, 0xc4, 0x3c,
  0x09, 0xe3, 0x59, 0x3d, 0x44, 0x34, 0x25, 0x3d, 0x14, 0xe1, 0x86, 0xbe,
  0xcc, 0xf9, 0xd3, 0xbd, 0x06, 0x51, 0x43, 0x3d, 0x45, 0x51, 0xb1, 0x3d,
  0x6f, 0x54, 0x4a, 0x3d, 0x4d, 0x22, 0xb1, 0xbd, 0x67, 0xbe, 0x50, 0x3d,
  0xc9, 0x1e, 0x8f, 0x3d, 0xdf, 0x77, 0x47, 0xbd, 0xec, 0x7d, 0x51, 0x3e,
  0xbb, 0x95, 0xd7, 0x3d, 0x10, 0x8d, 0x24, 0x3e, 0xe7, 0xa6, 0x95, 0x3d,
  0x9c, 0xc1, 0xfe, 0xbc, 0x33, 0x4b, 0x90, 0xbd, 0x84, 0x8a, 0x39, 0x3d,
  0xb1, 0xb0, 0x0b, 0x3d, 0x7a, 0xfe, 0x3d, 0x3d, 0x40, 0x51, 0x3f, 0xbe,
  0xcb, 0x1e, 0xb1, 0xbd, 0xca, 0xa6, 0x85, 0xbd, 0x6e, 0xf2, 0xdf, 0xbc,
  0xbc, 0xf6, 0x18, 0xbe, 0xb5, 0x99, 0xb3, 0x3d, 0x7e, 0x18, 0x87, 0x3c,
  0xf7, 0xb7, 0x05, 0x3d, 0x29, 0x33, 0x03, 0x3e, 0x2d, 0x2d, 0x66, 0xbe,
  0xbe, 0x3e, 0xe4, 0x3d, 0x91, 0x66, 0x82, 0xbe, 0x07, 0x8d, 0xad, 0x3c,
  0xde, 0x7d, 0xd9, 0x3d, 0xce, 0xe5, 0x6b, 0x3c, 0x3f, 0x11, 0x10, 0x3e,
  0x7f, 0xcc, 0xd1, 0x3c, 0x14, 0x92, 0x18, 0x3e, 0x77, 0x7c, 0x6f, 0xbd,
  0x61, 0xc5, 0x80, 0xbe, 0xd6, 0x2e, 0xbd, 0x3c, 0x5a, 0x22, 0xb3, 0xbd,
  0xfe, 0x29, 0xa2, 0xbc, 0x2a, 0xfe, 0x53, 0x3e, 0xf8, 0xf3, 0x8b, 0xbd,
  0xcc, 0x55, 0x12, 0xbe, 0xa0, 0x43, 0x42, 0xbd, 0x23, 0x94, 0x8d, 0xbd,
  0x1f, 0x8d, 0x8a, 0x3d, 0xeb, 0x75, 0x4b, 0x3e, 0xd5, 0x8c, 0x8a, 0xbc,
  0xe0, 0x13, 0xc0, 0xbd, 0x77, 0x85, 0x43, 0xbd, 0x80, 0x20, 0x69, 0xbc,
  0x3e, 0x36, 0x6c, 0xbe, 0xb2, 0x4c, 0x37, 0x3e, 0xdc, 0xba, 0x50, 0xbd,
  0x83, 0x21, 0x89, 0xbd, 0x6c, 0x55, 0x0e, 0xbe, 0x70, 0x81, 0x8e, 0x3d,
  0x7e, 0x76, 0xc6, 0xbb, 0x0d, 0x09, 0x24, 0xbe, 0xba, 0x16, 0x3a, 0x3e,
  0x1e, 0x09, 0x59, 0xbc, 0x25, 0xee, 0x79, 0xbe, 0x9b, 0xee, 0x23, 0xbe,
  0x33, 0x16, 0x9d, 0xbd, 0x4c, 0x87, 0x8b, 0x3d, 0x4f, 0xc8, 0x2d, 0xbe,
  0x41, 0x64, 0x96, 0x3d, 0xef, 0x73, 0x21, 0x3d, 0x1d, 0x6c, 0xc6, 0xbc,
  0x37, 0x40, 0x38, 0xbd, 0x63, 0x41, 0x80, 0x3e, 0xe2, 0xb8, 0xb3, 0x3d,
  0x33, 0xc7, 0x3a, 0xbd, 0x97, 0x02, 0xa0, 0x3d, 0x0f, 0xb0, 0x8c, 0xbd,
  0x9f, 0x06, 0x0b, 0xbe, 0x00, 0x23, 0x09, 0x3d, 0x01, 0xf6, 0x79, 0xbc,
  0x93, 0x50, 0x3f, 0xbe, 0x73, 0xdc, 0x9c, 0x3d, 0xb2, 0xdb, 0x2a, 0xbe,
  0x93, 0x15, 0xd6, 0xbd, 0xe6, 0x76, 0xe4, 0xbd, 0xd1, 0x1b, 0x93, 0xbd,
  0xc6, 0x99, 0x03, 0x3c, 0x03, 0x94, 0xff, 0x3d, 0xa0, 0xbc, 0xc6, 0xbc,
  0xe6, 0xe6, 0xcb, 0x3d, 0x47, 0x04, 0x05, 0xbe, 0x58, 0x33, 0xb7, 0xbd,
  0xc0, 0xec, 0x8a, 0x3d, 0xb9, 0xd6, 0xcf, 0xbd, 0x8b, 0xa7, 0xf0, 0xbc,
  0x68, 0x08, 0xe1, 0xbd, 0x08, 0x7c, 0x3a, 0xbe, 0x25, 0xd1, 0xca, 0xbc,
  0x49, 0xa2, 0x11, 0x3d, 0xae, 0x4d, 0x73, 0x3d, 0x04, 0xd1, 0x1d, 0x3e,
  0x86, 0xc4, 0xf4, 0x3d, 0x02, 0xfa, 0xe8, 0xbd, 0x43, 0xf4, 0xcd, 0x3d,
  0xab, 0x72, 0x99, 0x3d, 0x88, 0xdd, 0xd8, 0xbd, 0x14, 0x78, 0x01, 0x3c,
  0x3e, 0x1f, 0x1d, 0xbe, 0x32, 0x29, 0xf8, 0xbc, 0x23, 0x4f, 0x17, 0x3e,
  0xb7, 0xff, 0x14, 0xbe, 0x7c, 0xb1, 0x0c, 0x3d, 0xa0, 0x4c, 0x54, 0xbe,
  0xb7, 0x46, 0x00, 0xbe, 0xdd, 0xe7, 0x2e, 0xbd, 0x07, 0x34, 0x73, 0xbd,
  0x96, 0xbc, 0xfc, 0x3d, 0x79, 0xee, 0x1f, 0xbd, 0xc0, 0x05, 0x0b, 0x3e,
  0xa7, 0x79, 0x9d, 0xbc, 0xc7, 0xf1, 0x00, 0xbe, 0x9a, 0xa0, 0x93, 0xbd,
  0x79, 0x7c, 0x34, 0x3d, 0x57, 0xff, 0xc4, 0x3d, 0x26, 0x8f, 0x53, 0xbe,
  0x21, 0x10, 0x32, 0x3e, 0x2e, 0x18, 0x33, 0x3c, 0x36, 0x90, 0x0a, 0x3e,
  0x31, 0xf3, 0x3d, 0x3d, 0xb8, 0xef, 0x63, 0xbe, 0xb5, 0xfa, 0xb6, 0x3d,
  0xa2, 0x5c, 0xc8, 0x3c, 0x4c, 0x69, 0xd8, 0x3c, 0x43, 0xbd, 0xf7, 0xbc,
  0xcb, 0xb2, 0x04, 0xbe, 0x58, 0x3d, 0x85, 0xbb, 0xc1, 0xd6, 0x5d, 0x3c,
  0xd0, 0x59, 0x4a, 0xbd, 0x10, 0x32, 0x24, 0x3e, 0xf9, 0x1c, 0x08, 0x3a,
  0x31, 0xe2, 0xba, 0x3c, 0xb2, 0xa7, 0xd7, 0xbd, 0x28, 0xf8, 0x6c, 0x3e,
  0x06, 0x97, 0x00, 0xbe, 0xcc, 0xa2, 0x08, 0xbe, 0x8a, 0x8a, 0x1e, 0xbe,
  0x5d, 0x06, 0xa6, 0xbc, 0xa7, 0x98, 0xf1, 0x3c, 0xf3, 0xc7, 0x87, 0xbc,
  0x74, 0xf9, 0x16, 0x3e, 0xdd, 0xa1, 0x1b, 0xba, 0x92, 0x92, 0x24, 0x3c,
  0x44, 0xb9, 0x9f, 0xbd, 0xc1, 0x6f, 0x82, 0x3e, 0x51, 0x9c, 0xd8, 0x3d,
  0x96, 0x2e, 0x6d, 0xbd, 0xc3, 0xef, 0x48, 0xbe, 0x55, 0xeb, 0x3f, 0x3d,
  0xb4, 0x97, 0x29, 0xbd, 0xc3, 0xaf, 0x9c, 0x3c, 0xdb, 0x98, 0x34, 0x3e,
  0xbb, 0xbb, 0x23, 0xbe, 0x56, 0x41, 0x18, 0x3e, 0xf7, 0x58, 0x81, 0xbd,
  0x69, 0xaf, 0x97, 0x3b, 0x21, 0x69, 0x6f, 0x3e, 0xa6, 0x37, 0xba, 0xbd,
  0x4b, 0x06, 0x3d, 0xbd, 0x5c, 0x84, 0xb6, 0x3d, 0x5e, 0xf4, 0x2b, 0xbd,
  0xa8, 0x92, 0xf1, 0xbd, 0x6b, 0x67, 0x34, 0xbe, 0x15, 0x1d, 0xf4, 0xbd,
  0x8c, 0xe9, 0x2a, 0xbe, 0x59, 0xfc, 0xea, 0xba, 0xb5, 0x00, 0x22, 0x3e,
  0xdb, 0x75, 0xf5, 0xbc, 0xa2, 0x5c, 0x9f, 0xbc, 0x94, 0x4d, 0x8c, 0x3d,
  0xeb, 0xe8, 0xca, 0x3d, 0xa9, 0x24, 0x8a, 0xbd, 0x18, 0x8d, 0x96, 0x3d,
  0xfe, 0xdc, 0xc2, 0xbc, 0x02, 0x9b, 0x4a, 0xba, 0xf5, 0x1a, 0x9d, 0xbd,
  0x88, 0xc7, 0x0f, 0x3e, 0x8f, 0x7c, 0x3d, 0x3d, 0x52, 0x2e, 0xe1, 0x3d,
  0xfe, 0xb6, 0x35, 0x3e, 0x96, 0xe7, 0xca, 0xbd, 0x46, 0x80, 0x9e, 0xbd,
  0x9c, 0xb1, 0xa1, 0xbd, 0x8f, 0x43, 0x21, 0xbe, 0xd2, 0x69, 0x15, 0x3e,
  0x1f, 0x18, 0x89, 0x3c, 0x00, 0x9f, 0xcc, 0x3d, 0x32, 0xdc, 0x8e, 0x3d,
  0xb3, 0x87, 0x4f, 0xbe, 0x17, 0xbb, 0x06, 0xbe, 0x4d, 0xe6, 0x6a, 0xbe,
  0x9f, 0x49, 0x42, 0x3d, 0x34, 0xe8, 0x06, 0xbc, 0xf2, 0x13, 0x67, 0xbe,
  0xad, 0x49, 0xcb, 0x3d, 0xd7, 0x3d, 0x67, 0x3c, 0xcb, 0xda, 0xa9, 0xbd,
  0x13, 0xee, 0x3f, 0x3e, 0x03, 0xea, 0x2f, 0x3e, 0x09, 0x85, 0x7c, 0x3d,
  0xe9, 0xc8, 0xeb, 0x3d, 0x70, 0xb7, 0xcc, 0xbd, 0x40, 0x90, 0x26, 0x3e,
  0x4c, 0x07, 0xa0, 0xbd, 0xe0, 0x3a, 0x1f, 0x3e, 0x20, 0x66, 0xba, 0xbc,
  0x8a, 0x5c, 0x5d, 0x3d, 0xc5, 0x83, 0xd2, 0xbd, 0xd1, 0xab, 0x8a, 0x3d,
  0x6e, 0xf3, 0x4a, 0x3d, 0xbc, 0x21, 0x01, 0xbd, 0xad, 0x81, 0x9e, 0x3d,
  0x84, 0x5d, 0xc1, 0x3d, 0x35, 0xf1, 0x46, 0x3e, 0x30, 0xcf, 0x04, 0x3e,
  0xa4, 0xeb, 0x07, 0xbe, 0x90, 0x19, 0x79, 0xbd, 0x00, 0xd7, 0x3f, 0x3e,
  0x3e, 0xf8, 0xff, 0xff, 0x04, 0x00, 0x00, 0x00, 0xc0, 0x06, 0x00, 0x00,
  0xfa, 0x55, 0x12, 0xbd, 0xe4, 0xc4, 0x26, 0x3e, 0x5b, 0xdc, 0x8a, 0xbc,
  0x77, 0x01, 0xad, 0xbe, 0x6a, 0xf2, 0x2d, 0xbe, 0x0f, 0x59, 0xcf, 0x3d,
  0x29, 0x43, 0x35, 0x3e, 0x9d, 0x9a, 0x1a, 0xb9, 0x62, 0x00, 0x3d, 0x3e,
  0xa3, 0x23, 0x56, 0xbe, 0xeb, 0x02, 0x12, 0xbf, 0xd6, 0xc2, 0xd6, 0x3e,
  0xb1, 0x7f, 0x89, 0xbd, 0x28, 0x0a, 0x7d, 0x3e, 0x4d, 0x02, 0xc4, 0xbd,
  0xe4, 0x97, 0x44, 0xbe, 0xc9, 0xef, 0x04, 0x3e, 0x15, 0x74, 0x93, 0xbe,
  0x71, 0x5d, 0x98, 0xbe, 0xfb, 0xdc, 0xbf, 0x3c, 0xc3, 0x8f, 0x99, 0x3e,
  0x9a, 0x19, 0x1a, 0xbe, 0x8a, 0x7e, 0x9f, 0xbc, 0x6c, 0x22, 0x01, 0xbe,
  0xe5, 0xd0, 0xf9, 0x3e, 0xef, 0x66, 0xb3, 0xbe, 0xc3, 0xfe, 0x85, 0xbe,
  0x75, 0xc8, 0x16, 0xbe, 0xe0, 0xfe, 0x03, 0xbe, 0xc3, 0xab, 0x3e, 0x3c,
  0xdb, 0x46, 0xe4, 0xbd, 0xd4, 0xac, 0xf6, 0xbc, 0x9c, 0x41, 0x66, 0xbe,
  0x55, 0x5f, 0x67, 0x3e, 0x10, 0x72, 0x04, 0x3e, 0x0f, 0xa9, 0x45, 0x3e,
  0x1a, 0x07, 0x94, 0xbd, 0x9a, 0xa2, 0x31, 0xbe, 0x7a, 0x57, 0x52, 0x3e,
  0x75, 0xf7, 0x49, 0xbd, 0x86, 0x62, 0xc3, 0xbd, 0xbd, 0xfe, 0x8c, 0xbd,
  0xf9, 0x6a, 0xc8, 0x3e, 0x3d, 0xd1, 0x77, 0x3e, 0x3b, 0x5b, 0x14, 0xbe,
  0x8c, 0xb3, 0x2c, 0x3d, 0x33, 0x9c, 0x18, 0xbe, 0x32, 0x18, 0x6f, 0x3e,
  0x17, 0xfa, 0x98, 0xbc, 0xc0, 0x7d, 0x72, 0x3e, 0x04, 0xf6, 0x18, 0xbe,
  0x9f, 0xca, 0x6d, 0x3e, 0x54, 0xb3, 0xfa, 0x3d, 0x2d, 0xbf, 0x3a, 0xbe,
  0xb3, 0xe1, 0xdc, 0x3d, 0x2c, 0x1d, 0x40, 0x3e, 0xdd, 0x19, 0x3b, 0xbe,
  0xdc, 0x63, 0xa1, 0x3e, 0x27, 0xb6, 0x3b, 0x3e, 0x98, 0xd5, 0xbc, 0xbc,
  0xc4, 0x0c, 0xd8, 0xbd, 0x07, 0x6d, 0x5b, 0x3e, 0xe2, 0x0d, 0x8e, 0xbd,
  0xa4, 0x59, 0x39, 0xbc, 0x0d, 0xf1, 0x1c, 0x3f, 0x9e, 0x1a, 0x39, 0xbe,
  0x4f, 0x20, 0x20, 0x3e, 0x59, 0x52, 0xd6, 0x3d, 0xed, 0x51, 0xd5, 0x3b,
  0xec, 0xbe, 0xa1, 0xbe, 0x6d, 0xe1, 0x1a, 0x3e, 0x93, 0x0d, 0x8e, 0x3e,
  0xc7, 0xec, 0x3e, 0xbd, 0x90, 0x96, 0x6d, 0xbe, 0x11, 0xcf, 0x8a, 0x3e,
  0x49, 0xfd, 0xf9, 0x3d, 0x5a, 0x4e, 0x0d, 0x3f, 0x1b, 0xb3, 0xbc, 0x3e,
  0x60, 0xc5, 0xbb, 0x3e, 0xc5, 0x98, 0xcc, 0xbd, 0x8b, 0xa6, 0x10, 0x3c,
  0xd1, 0x57, 0xba, 0xbe, 0x18, 0x50, 0xe1, 0x3d, 0x15, 0x73, 0xc0, 0xbd,
  0x54, 0xff, 0xb3, 0xbe, 0x99, 0x66, 0xbf, 0xbd, 0xed, 0xc2, 0x15, 0xbe,
  0x94, 0xf3, 0x9f, 0xbd, 0x00, 0xa3, 0xc4, 0x3e, 0xfa, 0x0c, 0x3f, 0x3d,
  0xf2, 0x73, 0x81, 0x3e, 0x1f, 0x36, 0x7c, 0xbe, 0x0f, 0x05, 0xad, 0xbe,
  0x3f, 0x65, 0x8c, 0xbd, 0xe1, 0x1d, 0x9a, 0xbe, 0xcb, 0x42, 0xbc, 0xbe,
  0x7b, 0xa5, 0x45, 0x3e, 0x26, 0xda, 0x6a, 0x3e, 0x6c, 0x33, 0x18, 0xbe,
  0xa1, 0xfb, 0x8d, 0xbe, 0x45, 0x99, 0x03, 0x3f, 0x0e, 0x08, 0x8e, 0x3e,
  0x77, 0x45, 0x3c, 0x3d, 0x42, 0x0f, 0x25, 0xbe, 0xf7, 0xff, 0xb1, 0xbe,
  0x3b, 0x35, 0x87, 0x3e, 0xa8, 0x7b, 0x15, 0xbe, 0x4b, 0xa1, 0x8a, 0x3e,
  0x82, 0x7a, 0x6a, 0x3d, 0x4a, 0x46, 0xb9, 0x3e, 0x28, 0xd5, 0x47, 0xbd,
  0xab, 0x37, 0x25, 0x3e, 0xef, 0x5c, 0x78, 0x3e, 0x8c, 0xb8, 0x03, 0xbf,
  0x12, 0xc0, 0x6a, 0xbd, 0x54, 0x20, 0x06, 0x3f, 0x5e, 0x95, 0xac, 0x3d,
  0x78, 0x90, 0xd2, 0xbd, 0x0e, 0x14, 0xf3, 0xbd, 0x7b, 0x2a, 0xb5, 0xbe,
  0x3e, 0xa9, 0x0b, 0x3e, 0x21, 0x25, 0xfe, 0x3e, 0xf0, 0x58, 0xcc, 0xbe,
  0x81, 0x93, 0xc7, 0xbe, 0xb5, 0x57, 0xe2, 0x3d, 0xab, 0xf6, 0x81, 0x3d,
  0xd3, 0xec, 0x9f, 0x3e, 0x2a, 0xcc, 0x0a, 0x3f, 0xd4, 0xd4, 0x0f, 0xbf,
  0xdb, 0xa0, 0xdd, 0x3d, 0x26, 0x44, 0x83, 0x3e, 0xc0, 0xda, 0x12, 0xbe,
  0xe6, 0x54, 0xcd, 0x3d, 0x54, 0x87, 0x91, 0xbe, 0xbc, 0x93, 0x3f, 0x3d,
  0x78, 0xb2, 0x93, 0x3e, 0x32, 0x9c, 0x05, 0xbf, 0x9c, 0xbb, 0xe9, 0x3e,
  0xc5, 0x96, 0x8e, 0x3e, 0x04, 0x07, 0xce, 0x3e, 0x30, 0xbb, 0xcf, 0xbd,
  0x62, 0x1c, 0x1b, 0x3f, 0x72, 0x26, 0xc8, 0x3c, 0xd9, 0xd1, 0x87, 0xbd,
  0xe2, 0x91, 0x8e, 0xbc, 0xe1, 0xbb, 0xd8, 0xbe, 0x50, 0xff, 0x39, 0xbe,
  0xc8, 0x21, 0x1a, 0x3f, 0x04, 0xe6, 0xba, 0xbe, 0xd3, 0x21, 0x09, 0x3c,
  0x80, 0x33, 0x0a, 0xbe, 0x56, 0xa3, 0x7b, 0x3e, 0x4f, 0x8a, 0x96, 0xbe,
  0xd8, 0x06, 0x85, 0x3e, 0x67, 0xca, 0x1c, 0xbd, 0xb2, 0x6e, 0x43, 0x3e,
  0x9e, 0xdf, 0x14, 0xbe, 0x74, 0x6f, 0xff, 0x3d, 0x85, 0x45, 0x2c, 0x3e,
  0x44, 0xef, 0x8f, 0x3e, 0x99, 0xc6, 0xaa, 0x3e, 0xa6, 0x51, 0x16, 0x3e,
  0x8d, 0x45, 0x11, 0x3e, 0xe7, 0x98, 0xc1, 0x3e, 0xc2, 0x6b, 0x53, 0x3e,
  0x15, 0x69, 0x91, 0x3e, 0xca, 0x9f, 0x82, 0xbe, 0x92, 0x65, 0xfd, 0xbd,
  0xe6, 0xa2, 0xfe, 0xbe, 0xf5, 0xdc, 0xcc, 0x3e, 0xd2, 0xee, 0x41, 0xbe,
  0x19, 0x29, 0x1e, 0x3e, 0x02, 0x28, 0x04, 0x3f, 0x80, 0x29, 0x15, 0x3e,
  0x76, 0x8e, 0x3b, 0xbe, 0x40, 0xed, 0xd3, 0x3d, 0xa3, 0x64, 0x8b, 0x3e,
  0xdd, 0xb0, 0xae, 0xbe, 0x05, 0x5d, 0x03, 0xbe, 0xfc, 0xd0, 0xec, 0xbe,
  0xae, 0xfe, 0x3a, 0x3e, 0x47, 0x7e, 0x2b, 0x3e, 0x96, 0x01, 0xb2, 0xbd,
  0xfe, 0x92, 0x02, 0xbf, 0xa9, 0x0c, 0xcc, 0xbe, 0x81, 0x20, 0x02, 0xbe,
  0xaa, 0x73, 0x00, 0x3e, 0x76, 0x0d, 0x06, 0x3d, 0xf6, 0xa0, 0xf3, 0x3d,
  0x0a, 0x91, 0xb0, 0x3e, 0x1b, 0x76, 0x9c, 0x3e, 0x67, 0x91, 0x79, 0x3e,
  0x79, 0xb6, 0xdf, 0xbe, 0x22, 0xe0, 0x86, 0xbe, 0xb3, 0xce, 0xd5, 0x3e,
  0x5b, 0xc1, 0x1c, 0xbf, 0x8b, 0xfc, 0x91, 0xbd, 0xd9, 0x3b, 0x8f, 0xbd,
  0x28, 0x1d, 0xa2, 0x3e, 0x52, 0x52, 0x8b, 0x3e, 0x64, 0x74, 0x2a, 0xbe,
  0x9c, 0x64, 0x2f, 0x3e, 0xc5, 0x1c, 0xb5, 0x3c, 0x0a, 0x1c, 0x01, 0xbd,
  0xc6, 0xb7, 0x40, 0x3e, 0x02, 0x32, 0x06, 0xbe, 0x4b, 0xc5, 0x74, 0xbe,
  0x91, 0x20, 0xe7, 0x3d, 0x8f, 0xbb, 0x23, 0xbd, 0xf8, 0x26, 0x3b, 0x3e,
  0x61, 0x3d, 0xe5, 0x3a, 0x37, 0x45, 0xba, 0xbc, 0x29, 0x97, 0x94, 0x3e,
  0xde, 0x1c, 0x91, 0x3e, 0xaf, 0xa8, 0xbd, 0xbe, 0x33, 0xe4, 0xd0, 0xbd,
  0xe8, 0xf3, 0xa8, 0xba, 0x09, 0x56, 0xf5, 0x3e, 0x5d, 0xb6, 0xb4, 0x3e,
  0x6b, 0x66, 0x53, 0xbd, 0x35, 0xd7, 0xb3, 0xbe, 0x17, 0x40, 0x10, 0x3e,
  0xf4, 0x35, 0x1d, 0xbd, 0x28, 0x77, 0x9e, 0x3d, 0xce, 0x4f, 0xb3, 0xbe,
  0x81, 0x55, 0xd5, 0x3b, 0xf1, 0x68, 0xb2, 0xbe, 0x0c, 0x2b, 0x2f, 0xbe,
  0x25, 0x66, 0xe6, 0xbe, 0x18, 0x3a, 0xe4, 0x3c, 0x4b, 0x9e, 0x38, 0xbd,
  0x1b, 0x3f, 0xe7, 0xbe, 0x0d, 0x46, 0xa3, 0xbe, 0x4a, 0x3f, 0x6e, 0x3e,
  0x64, 0x3e, 0xf6, 0x3b, 0xb4, 0x79, 0x0a, 0x3e, 0x0f, 0xbd, 0x13, 0x3e,
  0x2f, 0x8f, 0x1a, 0x3f, 0x2a, 0x42, 0x88, 0xbd, 0x54, 0x19, 0x64, 0xbb,
  0x81, 0x22, 0xe5, 0x3e, 0x2b, 0xaf, 0xc8, 0xbc, 0xc3, 0x9d, 0xdd, 0x3d,
  0x43, 0x18, 0x87, 0xbc, 0x19, 0x4e, 0x2e, 0xbd, 0x1b, 0x28, 0xf5, 0x3e,
  0x05, 0x08, 0x84, 0xbd, 0x4d, 0x07, 0xbc, 0x3e, 0x62, 0x9b, 0xb3, 0xbd,
  0x17, 0xab, 0xd9, 0xbd, 0x90, 0x22, 0xf4, 0xbc, 0xf1, 0xd7, 0x09, 0x3e,
  0x74, 0x2d, 0x0e, 0x3e, 0x41, 0x6d, 0x5f, 0xbe, 0x05, 0xf4, 0xdf, 0x3e,
  0x65, 0xe4, 0x04, 0x3f, 0xf2, 0x07, 0x01, 0xbd, 0x8e, 0x77, 0xb9, 0xbe,
  0x7f, 0xe7, 0x09, 0xbe, 0xaa, 0x4b, 0x43, 0x3e, 0xed, 0x87, 0x2d, 0x3e,
  0xfe, 0x15, 0xb1, 0x3e, 0xcf, 0xd1, 0x3f, 0x3e, 0x8c, 0x88, 0xaa, 0xbe,
  0x88, 0xcd, 0xeb, 0x3d, 0xd8, 0x02, 0x4a, 0xbe, 0x1b, 0xa6, 0x34, 0x3e,
  0x90, 0x1b, 0x12, 0xbe, 0x77, 0xf2, 0xe7, 0xbe, 0xd9, 0x77, 0x22, 0xbe,
  0x0e, 0x4b, 0x7c, 0xbd, 0xb0, 0x98, 0x9d, 0xbd, 0xea, 0x4f, 0xbc, 0x3e,
  0x96, 0x5b, 0x8c, 0x3e, 0xae, 0xf7, 0x74, 0x3e, 0x2a, 0x03, 0xdd, 0x3e,
  0x4a, 0x47, 0x64, 0x3e, 0x08, 0x67, 0x87, 0x3e, 0x08, 0x99, 0x2f, 0x3e,
  0x6a, 0x94, 0xb4, 0xbe, 0xd8, 0xe4, 0xc4, 0xbc, 0x89, 0x18, 0x53, 0x3e,
  0x17, 0x3d, 0xe8, 0xbe, 0xa2, 0xd0, 0x60, 0x3d, 0xc5, 0xb1, 0xb7, 0xbe,
  0x7e, 0xe7, 0x38, 0xbe, 0xb0, 0xfc, 0x20, 0x3e, 0x9d, 0x13, 0xc0, 0xbd,
  0x68, 0xe8, 0x01, 0x3e, 0xc1, 0x8d, 0xff, 0xbe, 0x55, 0x3b, 0x08, 0xbe,
  0xe9, 0x20, 0x87, 0x3d, 0x94, 0x70, 0xeb, 0xbd, 0x37, 0x17, 0x5e, 0x3c,
  0xc0, 0xfa, 0x0c, 0x3e, 0x38, 0x0d, 0xe5, 0xbe, 0x5c, 0xf8, 0xff, 0xba,
  0x67, 0x8b, 0x49, 0x3e, 0x70, 0x05, 0x06, 0xbe, 0xd0, 0xb8, 0xca, 0x3d,
  0xb4, 0x72, 0xb9, 0x3e, 0x75, 0x5d, 0x2f, 0xbe, 0x43, 0x74, 0x0c, 0x3f,
  0x8a, 0x63, 0x24, 0x3e, 0x23, 0x95, 0x97, 0xbe, 0x51, 0x0a, 0x1e, 0xbf,
  0x0c, 0x12, 0x0c, 0xbf, 0xfc, 0x8d, 0x80, 0xbe, 0x95, 0x0a, 0x71, 0x3e,
  0xe1, 0xa9, 0x1b, 0xbd, 0x41, 0x9f, 0xd1, 0x3d, 0xaa, 0xb0, 0xfb, 0x3d,
  0x42, 0x0a, 0x03, 0x3f, 0x0f, 0x5d, 0x85, 0xbe, 0x66, 0xfc, 0xa0, 0x3e,
  0x74, 0xb9, 0x76, 0xbe, 0x04, 0x8e, 0x0d, 0xbf, 0x2e, 0xd0, 0x2b, 0xbe,
  0x95, 0x73, 0x84, 0x3e, 0x90, 0x46, 0xbd, 0xbe, 0x49, 0xbb, 0xf9, 0xbe,
  0x06, 0x49, 0xc3, 0xbe, 0xcc, 0x58, 0x91, 0xbe, 0x0d, 0x28, 0xee, 0xbd,
  0xdc, 0x61, 0x93, 0x3d, 0x98, 0x83, 0x75, 0x3e, 0xa5, 0x40, 0x7f, 0xbe,
  0x75, 0x7b, 0x4a, 0xbe, 0x01, 0xa5, 0xc8, 0xbd, 0xf0, 0xb3, 0xb9, 0xbe,
  0xd9, 0x34, 0x3c, 0x3d, 0x98, 0xfe, 0xba, 0x3c, 0xfd, 0x0d, 0x6f, 0xbe,
  0xb2, 0xe9, 0x43, 0xbe, 0x98, 0x15, 0x4e, 0xbd, 0x70, 0xf6, 0x87, 0x3e,
  0x8d, 0xcb, 0xf4, 0xbd, 0xbc, 0xa3, 0x58, 0x3e, 0xd2, 0x24, 0x54, 0xbe,
  0x24, 0xca, 0x78, 0x3e, 0xfa, 0x84, 0x74, 0x3d, 0x08, 0xbf, 0x8f, 0xbd,
  0xb0, 0x27, 0xaa, 0x3e, 0x94, 0x58, 0xba, 0xbd, 0x75, 0x6c, 0x97, 0x3d,
  0xa5, 0x48, 0xb8, 0xbe, 0xc4, 0xe1, 0x9c, 0x3e, 0x92, 0xf9, 0xba, 0x3e,
  0x71, 0x7d, 0xb0, 0x3d, 0x09, 0xa3, 0x9a, 0xbd, 0x06, 0x48, 0x9e, 0xbe,
  0xa3, 0x64, 0x8b, 0x3d, 0x53, 0x75, 0x8e, 0x3e, 0xe5, 0xe9, 0x73, 0xbe,
  0x3f, 0xf9, 0x37, 0xbe, 0x65, 0xee, 0xcd, 0xbd, 0xb9, 0xde, 0x80, 0xbe,
  0xf8, 0xb8, 0xc7, 0x3e, 0x11, 0x9a, 0x86, 0x3c, 0x7b, 0x5d, 0x44, 0x3e,
  0xa9, 0x6d, 0xbb, 0x3d, 0xd6, 0x9c, 0x23, 0x3e, 0xa2, 0xee, 0xf1, 0xbd,
  0x7a, 0x9b, 0x1a, 0x3d, 0x0f, 0x1e, 0x2a, 0x3e, 0xf9, 0xe3, 0x27, 0x3d,
  0x4c, 0x66, 0x8d, 0xbd, 0xdb, 0xad, 0x2f, 0x3d, 0x57, 0x05, 0x68, 0xbe,
  0xee, 0x55, 0x92, 0xbe, 0xd7, 0x72, 0xc8, 0x3d, 0xe0, 0xc9, 0x85, 0x3c,
  0xd1, 0xee, 0x2d, 0x3e, 0x04, 0x82, 0xdc, 0xbe, 0xd3, 0x32, 0x88, 0xbd,
  0x72, 0xf9, 0x09, 0xbe, 0x8e, 0x9b, 0x83, 0xbd, 0x54, 0x0f, 0x1c, 0xbd,
  0x39, 0x5b, 0xf9, 0xbd, 0xff, 0xd5, 0x8b, 0x3e, 0x99, 0x2d, 0x8c, 0x3d,
  0x60, 0x4f, 0xaf, 0x3e, 0x2c, 0xe5, 0xc8, 0xbe, 0xb5, 0xee, 0x76, 0x3e,
  0x1d, 0xe4, 0x76, 0x3e, 0xaf, 0x02, 0x6e, 0xbe, 0xb2, 0x16, 0x62, 0xbe,
  0xf1, 0x0c, 0x8d, 0xbe, 0xd5, 0x5b, 0xff, 0x3c, 0x7c, 0x26, 0xfc, 0xbd,
  0xe7, 0x2d, 0xf0, 0x3d, 0xad, 0xc4, 0x0f, 0xbe, 0x90, 0x2a, 0x97, 0xbe,
  0x46, 0xf1, 0x4b, 0xbe, 0x70, 0x83, 0x8a, 0xbe, 0xf1, 0x6e, 0xe1, 0x3e,
  0x3d, 0x59, 0xce, 0x3d, 0x57, 0x34, 0x72, 0xbe, 0xe8, 0xd3, 0x83, 0x3e,
  0x5b, 0x29, 0x97, 0xbe, 0x7e, 0x97, 0x62, 0x3e, 0x25, 0x4b, 0x8f, 0x3e,
  0x6f, 0x07, 0x2a, 0x3c, 0xeb, 0x2d, 0x71, 0xbe, 0xe9, 0x41, 0x8d, 0xbe,
  0x91, 0x48, 0xc0, 0x3c, 0xc2, 0xdd, 0x20, 0xbe, 0xc2, 0xe4, 0x08, 0x3f,
  0x37, 0x80, 0x69, 0xbe, 0x7f, 0x52, 0x9c, 0x3d, 0x11, 0xa2, 0xea, 0xbe,
  0xf0, 0x62, 0xa4, 0x3e, 0x84, 0x64, 0xd8, 0xbc, 0x4a, 0x68, 0xe4, 0x3d,
  0x06, 0xe6, 0x84, 0xbe, 0x79, 0x19, 0xc5, 0x3e, 0xad, 0x62, 0xab, 0xbe,
  0xc4, 0x92, 0x28, 0x3e, 0x6a, 0xda, 0x81, 0xbe, 0x2d, 0xe9, 0x90, 0xbe,
  0xc0, 0xfb, 0xf8, 0x3e, 0x56, 0x49, 0x3b, 0x3e, 0x81, 0xdf, 0x91, 0xbe,
  0x40, 0xf7, 0xb5, 0x3d, 0x7a, 0xfd, 0x16, 0x3f, 0xa3, 0x86, 0x00, 0xbe,
  0xf0, 0x0c, 0xfa, 0xbd, 0x9e, 0x4f, 0x54, 0x3e, 0x26, 0x2a, 0x83, 0xbe,
  0x52, 0x7c, 0xa5, 0xbc, 0xee, 0xcc, 0x16, 0x3f, 0x9e, 0x1a, 0xa4, 0x3e,
  0x0a, 0xff, 0xff, 0xff, 0x04, 0x00, 0x00, 0x00, 0x14, 0x00, 0x00, 0x00,
  0x00, 0x00, 0x00, 0x00, 0x00, 0x00, 0x00, 0x00, 0x00, 0x00, 0x00, 0x00,
  0x00, 0x00, 0x00, 0x00, 0x00, 0x00, 0x00, 0x00, 0x2a, 0xff, 0xff, 0xff,
  0x04, 0x00, 0x00, 0x00, 0x40, 0x00, 0x00, 0x00, 0x00, 0x00, 0x00, 0x00,
  0x00, 0x00, 0x00, 0x00, 0x00, 0x00, 0x00, 0x00, 0x00, 0x00, 0x00, 0x00,
  0x00, 0x00, 0x00, 0x00, 0x00, 0x00, 0x00, 0x00, 0x00, 0x00, 0x00, 0x00,
  0x00, 0x00, 0x00, 0x00, 0x00, 0x00, 0x00, 0x00, 0x00, 0x00, 0x00, 0x00,
  0x00, 0x00, 0x00, 0x00, 0x00, 0x00, 0x00, 0x00, 0x00, 0x00, 0x00, 0x00,
  0x00, 0x00, 0x00, 0x00, 0x00, 0x00, 0x00, 0x00, 0x00, 0x00, 0x00, 0x00,
  0x5c, 0xf8, 0xff, 0xff, 0x60, 0xf8, 0xff, 0xff, 0x0f, 0x00, 0x00, 0x00,
  0x4d, 0x4c, 0x49, 0x52, 0x20, 0x43, 0x6f, 0x6e, 0x76, 0x65, 0x72, 0x74,
  0x65, 0x64, 0x2e, 0x00, 0x01, 0x00, 0x00, 0x00, 0x14, 0x00, 0x00, 0x00,
  0x00, 0x00, 0x0e, 0x00, 0x18, 0x00, 0x14, 0x00, 0x10, 0x00, 0x0c, 0x00,
  0x08, 0x00, 0x04, 0x00, 0x0e, 0x00, 0x00, 0x00, 0x14, 0x00, 0x00, 0x00,
  0x1c, 0x00, 0x00, 0x00, 0xa4, 0x01, 0x00, 0x00, 0xa8, 0x01, 0x00, 0x00,
  0xac, 0x01, 0x00, 0x00, 0x04, 0x00, 0x00, 0x00, 0x6d, 0x61, 0x69, 0x6e,
  0x00, 0x00, 0x00, 0x00, 0x05, 0x00, 0x00, 0x00, 0x40, 0x01, 0x00, 0x00,
  0xf0, 0x00, 0x00, 0x00, 0x9c, 0x00, 0x00, 0x00, 0x40, 0x00, 0x00, 0x00,
  0x04, 0x00, 0x00, 0x00, 0x7e, 0xff, 0xff, 0xff, 0x1c, 0x00, 0x00, 0x00,
  0x00, 0x00, 0x00, 0x09, 0x1c, 0x00, 0x00, 0x00, 0x20, 0x00, 0x00, 0x00,
  0x02, 0x00, 0x00, 0x00, 0x00, 0x00, 0x06, 0x00, 0x08, 0x00, 0x04, 0x00,
  0x06, 0x00, 0x00, 0x00, 0x00, 0x00, 0x80, 0x3f, 0x01, 0x00, 0x00, 0x00,
  0x0a, 0x00, 0x00, 0x00, 0x01, 0x00, 0x00, 0x00, 0x09, 0x00, 0x00, 0x00,
  0x1a, 0xff, 0xff, 0xff, 0x1c, 0x00, 0x00, 0x00, 0x00, 0x00, 0x00, 0x01,
  0x24, 0x00, 0x00, 0x00, 0x28, 0x00, 0x00, 0x00, 0x00, 0x00, 0x0a, 0x00,
  0x10, 0x00, 0x0f, 0x00, 0x08, 0x00, 0x04, 0x00, 0x0a, 0x00, 0x00, 0x00,
  0x01, 0x00, 0x00, 0x00, 0x01, 0x00, 0x00, 0x00, 0x00, 0x00, 0x00, 0x01,
  0x01, 0x00, 0x00, 0x00, 0x09, 0x00, 0x00, 0x00, 0x03, 0x00, 0x00, 0x00,
  0x08, 0x00, 0x00, 0x00, 0x05, 0x00, 0x00, 0x00, 0x02, 0x00, 0x00, 0x00,
  0x00, 0x00, 0x0e, 0x00, 0x1a, 0x00, 0x14, 0x00, 0x10, 0x00, 0x0c, 0x00,
  0x0b, 0x00, 0x04, 0x00, 0x0e, 0x00, 0x00, 0x00, 0x24, 0x00, 0x00, 0x00,
  0x00, 0x00, 0x00, 0x05, 0x34, 0x00, 0x00, 0x00, 0x38, 0x00, 0x00, 0x00,
  0x01, 0x00, 0x00, 0x00, 0x00, 0x00, 0x0e, 0x00, 0x18, 0x00, 0x17, 0x00,
  0x10, 0x00, 0x0c, 0x00, 0x08, 0x00, 0x04, 0x00, 0x0e, 0x00, 0x00, 0x00,
  0x02, 0x00, 0x00, 0x00, 0x02, 0x00, 0x00, 0x00, 0x02, 0x00, 0x00, 0x00,
  0x02, 0x00, 0x00, 0x00, 0x00, 0x00, 0x00, 0x01, 0x01, 0x00, 0x00, 0x00,
  0x08, 0x00, 0x00, 0x00, 0x01, 0x00, 0x00, 0x00, 0x07, 0x00, 0x00, 0x00,
  0xc2, 0xff, 0xff, 0xff, 0x10, 0x00, 0x00, 0x00, 0x00, 0x00, 0x00, 0x01,
  0x18, 0x00, 0x00, 0x00, 0x1c, 0x00, 0x00, 0x00, 0xb4, 0xff, 0xff, 0xff,
  0x00, 0x00, 0x00, 0x01, 0x01, 0x00, 0x00, 0x00, 0x01, 0x00, 0x00, 0x00,
  0x01, 0x00, 0x00, 0x00, 0x07, 0x00, 0x00, 0x00, 0x03, 0x00, 0x00, 0x00,
  0x06, 0x00, 0x00, 0x00, 0x04, 0x00, 0x00, 0x00, 0x01, 0x00, 0x00, 0x00,
  0x00, 0x00, 0x0e, 0x00, 0x14, 0x00, 0x00, 0x00, 0x10, 0x00, 0x0c, 0x00,
  0x0b, 0x00, 0x04, 0x00, 0x0e, 0x00, 0x00, 0x00, 0x1c, 0x00, 0x00, 0x00,
  0x00, 0x00, 0x00, 0x01, 0x24, 0x00, 0x00, 0x00, 0x28, 0x00, 0x00, 0x00,
  0x0c, 0x00, 0x10, 0x00, 0x00, 0x00, 0x0c, 0x00, 0x08, 0x00, 0x07, 0x00,
  0x0c, 0x00, 0x00, 0x00, 0x00, 0x00, 0x00, 0x01, 0x01, 0x00, 0x00, 0x00,
  0x01, 0x00, 0x00, 0x00, 0x01, 0x00, 0x00, 0x00, 0x06, 0x00, 0x00, 0x00,
  0x03, 0x00, 0x00, 0x00, 0x00, 0x00, 0x00, 0x00, 0x03, 0x00, 0x00, 0x00,
  0x01, 0x00, 0x00, 0x00, 0x01, 0x00, 0x00, 0x00, 0x0a, 0x00, 0x00, 0x00,
  0x01, 0x00, 0x00, 0x00, 0x00, 0x00, 0x00, 0x00, 0x0b, 0x00, 0x00, 0x00,
  0x7c, 0x05, 0x00, 0x00, 0xfc, 0x04, 0x00, 0x00, 0x90, 0x04, 0x00, 0x00,
  0x44, 0x04, 0x00, 0x00, 0xf4, 0x03, 0x00, 0x00, 0xa4, 0x03, 0x00, 0x00,
  0x80, 0x02, 0x00, 0x00, 0x80, 0x01, 0x00, 0x00, 0x14, 0x01, 0x00, 0x00,
  0x70, 0x00, 0x00, 0x00, 0x04, 0x00, 0x00, 0x00, 0xc6, 0xfa, 0xff, 0xff,
  0x00, 0x00, 0x00, 0x01, 0x14, 0x00, 0x00, 0x00, 0x24, 0x00, 0x00, 0x00,
  0x24, 0x00, 0x00, 0x00, 0x0b, 0x00, 0x00, 0x00, 0x3c, 0x00, 0x00, 0x00,
  0x04, 0x00, 0x00, 0x00, 0xff, 0xff, 0xff, 0xff, 0x30, 0x00, 0x00, 0x00,
  0x30, 0x00, 0x00, 0x00, 0x05, 0x00, 0x00, 0x00, 0xb0, 0xfa, 0xff, 0xff,
  0x19, 0x00, 0x00, 0x00, 0x53, 0x74, 0x61, 0x74, 0x65, 0x66, 0x75, 0x6c,
  0x50, 0x61, 0x72, 0x74, 0x69, 0x74, 0x69, 0x6f, 0x6e, 0x65, 0x64, 0x43,
  0x61, 0x6c, 0x6c, 0x3a, 0x30, 0x00, 0x00, 0x00, 0x04, 0x00, 0x00, 0x00,
  0x01, 0x00, 0x00, 0x00, 0x30, 0x00, 0x00, 0x00, 0x30, 0x00, 0x00, 0x00,
  0x05, 0x00, 0x00, 0x00, 0x2e, 0xfb, 0xff, 0xff, 0x00, 0x00, 0x00, 0x01,
  0x14, 0x00, 0x00, 0x00, 0x24, 0x00, 0x00, 0x00, 0x24, 0x00, 0x00, 0x00,
  0x0a, 0x00, 0x00, 0x00, 0x74, 0x00, 0x00, 0x00, 0x04, 0x00, 0x00, 0x00,
  0xff, 0xff, 0xff, 0xff, 0x30, 0x00, 0x00, 0x00, 0x30, 0x00, 0x00, 0x00,
  0x05, 0x00, 0x00, 0x00, 0x18, 0xfb, 0xff, 0xff, 0x52, 0x00, 0x00, 0x00,
  0x6d, 0x6f, 0x64, 0x65, 0x6c, 0x2f, 0x63, 0x6f, 0x6e, 0x76, 0x32, 0x64,
  0x5f, 0x32, 0x2f, 0x42, 0x69, 0x61, 0x73, 0x41, 0x64, 0x64, 0x3b, 0x6d,
  0x6f, 0x64, 0x65, 0x6c, 0x2f, 0x63, 0x6f, 0x6e, 0x76, 0x32, 0x64, 0x5f,
  0x32, 0x2f, 0x42, 0x69, 0x61, 0x73, 0x41, 0x64, 0x64, 0x2f, 0x52, 0x65,
  0x61, 0x64, 0x56, 0x61, 0x72, 0x69, 0x61, 0x62, 0x6c, 0x65, 0x4f, 0x70,
  0x3b, 0x6d, 0x6f, 0x64, 0x65, 0x6c, 0x2f, 0x63, 0x6f, 0x6e, 0x76, 0x32,
  0x64, 0x5f, 0x32, 0x2f, 0x43, 0x6f, 0x6e, 0x76, 0x32, 0x44, 0x00, 0x00,
  0x04, 0x00, 0x00, 0x00, 0x01, 0x00, 0x00, 0x00, 0x30, 0x00, 0x00, 0x00,
  0x30, 0x00, 0x00, 0x00, 0x05, 0x00, 0x00, 0x00, 0xce, 0xfb, 0xff, 0xff,
  0x00, 0x00, 0x00, 0x01, 0x14, 0x00, 0x00, 0x00, 0x24, 0x00, 0x00, 0x00,
  0x24, 0x00, 0x00, 0x00, 0x09, 0x00, 0x00, 0x00, 0x3c, 0x00, 0x00, 0x00,
  0x04, 0x00, 0x00, 0x00, 0xff, 0xff, 0xff, 0xff, 0x30, 0x00, 0x00, 0x00,
  0x30, 0x00, 0x00, 0x00, 0x10, 0x00, 0x00, 0x00, 0xb8, 0xfb, 0xff, 0xff,
  0x1b, 0x00, 0x00, 0x00, 0x6d, 0x6f, 0x64, 0x65, 0x6c, 0x2f, 0x6d, 0x61,
  0x78, 0x5f, 0x70, 0x6f, 0x6f, 0x6c, 0x69, 0x6e, 0x67, 0x32, 0x64, 0x2f,
  0x4d, 0x61, 0x78, 0x50, 0x6f, 0x6f, 0x6c, 0x00, 0x04, 0x00, 0x00, 0x00,
  0x01, 0x00, 0x00, 0x00, 0x30, 0x00, 0x00, 0x00, 0x30, 0x00, 0x00, 0x00,
  0x10, 0x00, 0x00, 0x00, 0x36, 0xfc, 0xff, 0xff, 0x00, 0x00, 0x00, 0x01,
  0x14, 0x00, 0x00, 0x00, 0x24, 0x00, 0x00, 0x00, 0x24, 0x00, 0x00, 0x00,
  0x08, 0x00, 0x00, 0x00, 0xd0, 0x00, 0x00, 0x00, 0x04, 0x00, 0x00, 0x00,
  0xff, 0xff, 0xff, 0xff, 0x60, 0x00, 0x00, 0x00, 0x60, 0x00, 0x00, 0x00,
  0x10, 0x00, 0x00, 0x00, 0x20, 0xfc, 0xff, 0xff, 0xad, 0x00, 0x00, 0x00,
  0x6d, 0x6f, 0x64, 0x65, 0x6c, 0x2f, 0x61, 0x63, 0x74, 0x69, 0x76, 0x61,
  0x74, 0x69, 0x6f, 0x6e, 0x5f, 0x31, 0x2f, 0x52, 0x65, 0x6c, 0x75, 0x3b,
  0x6d, 0x6f, 0x64, 0x65, 0x6c, 0x2f, 0x62, 0x61, 0x74, 0x63, 0x68, 0x5f,
  0x6e, 0x6f, 0x72, 0x6d, 0x61, 0x6c, 0x69, 0x7a, 0x61, 0x74, 0x69, 0x6f,
  0x6e, 0x5f, 0x31, 0x2f, 0x46, 0x75, 0x73, 0x65, 0x64, 0x42, 0x61, 0x74,
  0x63, 0x68, 0x4e, 0x6f, 0x72, 0x6d, 0x56, 0x33, 0x3b, 0x6d, 0x6f, 0x64,
  0x65, 0x6c, 0x2f, 0x62, 0x61, 0x74, 0x63, 0x68, 0x5f, 0x6e, 0x6f, 0x72,
  0x6d, 0x61, 0x6c, 0x69, 0x7a, 0x61, 0x74, 0x69, 0x6f, 0x6e, 0x5f, 0x31,
  0x2f, 0x46, 0x75, 0x73, 0x65, 0x64, 0x42, 0x61, 0x74, 0x63, 0x68, 0x4e,
  0x6f, 0x72, 0x6d, 0x56, 0x33, 0x2f, 0x52, 0x65, 0x61, 0x64, 0x56, 0x61,
  0x72, 0x69, 0x61, 0x62, 0x6c, 0x65, 0x4f, 0x70, 0x3b, 0x6d, 0x6f, 0x64,
  0x65, 0x6c, 0x2f, 0x63, 0x6f, 0x6e, 0x76, 0x32, 0x64, 0x5f, 0x31, 0x2f,
  0x42, 0x69, 0x61, 0x73, 0x41, 0x64, 0x64, 0x3b, 0x6d, 0x6f, 0x64, 0x65,
  0x6c, 0x2f, 0x63, 0x6f, 0x6e, 0x76, 0x32, 0x64, 0x5f, 0x31, 0x2f, 0x43,
  0x6f, 0x6e, 0x76, 0x32, 0x44, 0x00, 0x00, 0x00, 0x04, 0x00, 0x00, 0x00,
  0x01, 0x00, 0x00, 0x00, 0x60, 0x00, 0x00, 0x00, 0x60, 0x00, 0x00, 0x00,
  0x10, 0x00, 0x00, 0x00, 0x32, 0xfd, 0xff, 0xff, 0x00, 0x00, 0x00, 0x01,
  0x14, 0x00, 0x00, 0x00, 0x24, 0x00, 0x00, 0x00, 0x24, 0x00, 0x00, 0x00,
  0x07, 0x00, 0x00, 0x00, 0xf4, 0x00, 0x00, 0x00, 0x04, 0x00, 0x00, 0x00,
  0xff, 0xff, 0xff, 0xff, 0x60, 0x00, 0x00, 0x00, 0x60, 0x00, 0x00, 0x00,
  0x10, 0x00, 0x00, 0x00, 0x1c, 0xfd, 0xff, 0xff, 0xd2, 0x00, 0x00, 0x00,
  0x6d, 0x6f, 0x64, 0x65, 0x6c, 0x2f, 0x61, 0x63, 0x74, 0x69, 0x76, 0x61,
  0x74, 0x69, 0x6f, 0x6e, 0x2f, 0x52, 0x65, 0x6c, 0x75, 0x3b, 0x6d, 0x6f,
  0x64, 0x65, 0x6c, 0x2f, 0x62, 0x61, 0x74, 0x63, 0x68, 0x5f, 0x6e, 0x6f,
  0x72, 0x6d, 0x61, 0x6c, 0x69, 0x7a, 0x61, 0x74, 0x69, 0x6f, 0x6e, 0x2f,
  0x46, 0x75, 0x73, 0x65, 0x64, 0x42, 0x61, 0x74, 0x63, 0x68, 0x4e, 0x6f,
  0x72, 0x6d, 0x56, 0x33, 0x3b, 0x6d, 0x6f, 0x64, 0x65, 0x6c, 0x2f, 0x62,
  0x61, 0x74, 0x63, 0x68, 0x5f, 0x6e, 0x6f, 0x72, 0x6d, 0x61, 0x6c, 0x69,
  0x7a, 0x61, 0x74, 0x69, 0x6f, 0x6e, 0x5f, 0x31, 0x2f, 0x46, 0x75, 0x73,
  0x65, 0x64, 0x42, 0x61, 0x74, 0x63, 0x68, 0x4e, 0x6f, 0x72, 0x6d, 0x56,
  0x33, 0x2f, 0x52, 0x65, 0x61, 0x64, 0x56, 0x61, 0x72, 0x69, 0x61, 0x62,
  0x6c, 0x65, 0x4f, 0x70, 0x3b, 0x6d, 0x6f, 0x64, 0x65, 0x6c, 0x2f, 0x63,
  0x6f, 0x6e, 0x76, 0x32, 0x64, 0x2f, 0x42, 0x69, 0x61, 0x73, 0x41, 0x64,
  0x64, 0x3b, 0x6d, 0x6f, 0x64, 0x65, 0x6c, 0x2f, 0x62, 0x61, 0x74, 0x63,
  0x68, 0x5f, 0x6e, 0x6f, 0x72, 0x6d, 0x61, 0x6c, 0x69, 0x7a, 0x61, 0x74,
  0x69, 0x6f, 0x6e, 0x5f, 0x31, 0x2f, 0x46, 0x75, 0x73, 0x65, 0x64, 0x42,
  0x61, 0x74, 0x63, 0x68, 0x4e, 0x6f, 0x72, 0x6d, 0x56, 0x33, 0x3b, 0x6d,
  0x6f, 0x64, 0x65, 0x6c, 0x2f, 0x63, 0x6f, 0x6e, 0x76, 0x32, 0x64, 0x2f,
  0x43, 0x6f, 0x6e, 0x76, 0x32, 0x44, 0x00, 0x00, 0x04, 0x00, 0x00, 0x00,
  0x01, 0x00, 0x00, 0x00, 0x60, 0x00, 0x00, 0x00, 0x60, 0x00, 0x00, 0x00,
  0x10, 0x00, 0x00, 0x00, 0xce, 0xfe, 0xff, 0xff, 0x00, 0x00, 0x00, 0x01,
  0x10, 0x00, 0x00, 0x00, 0x10, 0x00, 0x00, 0x00, 0x06, 0x00, 0x00, 0x00,
  0x24, 0x00, 0x00, 0x00, 0x24, 0xfe, 0xff, 0xff, 0x15, 0x00, 0x00, 0x00,
  0x6d, 0x6f, 0x64, 0x65, 0x6c, 0x2f, 0x63, 0x6f, 0x6e, 0x76, 0x32, 0x64,
  0x5f, 0x32, 0x2f, 0x43, 0x6f, 0x6e, 0x76, 0x32, 0x44, 0x00, 0x00, 0x00,
  0x04, 0x00, 0x00, 0x00, 0x05, 0x00, 0x00, 0x00, 0x01, 0x00, 0x00, 0x00,
  0x01, 0x00, 0x00, 0x00, 0x10, 0x00, 0x00, 0x00, 0x1a, 0xff, 0xff, 0xff,
  0x00, 0x00, 0x00, 0x01, 0x10, 0x00, 0x00, 0x00, 0x10, 0x00, 0x00, 0x00,
  0x05, 0x00, 0x00, 0x00, 0x24, 0x00, 0x00, 0x00, 0x70, 0xfe, 0xff, 0xff,
  0x15, 0x00, 0x00, 0x00, 0x6d, 0x6f, 0x64, 0x65, 0x6c, 0x2f, 0x63, 0x6f,
  0x6e, 0x76, 0x32, 0x64, 0x5f, 0x31, 0x2f, 0x43, 0x6f, 0x6e, 0x76, 0x32,
  0x44, 0x00, 0x00, 0x00, 0x04, 0x00, 0x00, 0x00, 0x10, 0x00, 0x00, 0x00,
  0x03, 0x00, 0x00, 0x00, 0x03, 0x00, 0x00, 0x00, 0x10, 0x00, 0x00, 0x00,
  0x66, 0xff, 0xff, 0xff, 0x00, 0x00, 0x00, 0x01, 0x10, 0x00, 0x00, 0x00,
  0x10, 0x00, 0x00, 0x00, 0x04, 0x00, 0x00, 0x00, 0x20, 0x00, 0x00, 0x00,
  0xbc, 0xfe, 0xff, 0xff, 0x13, 0x00, 0x00, 0x00, 0x6d, 0x6f, 0x64, 0x65,
  0x6c, 0x2f, 0x63, 0x6f, 0x6e, 0x76, 0x32, 0x64, 0x2f, 0x43, 0x6f, 0x6e,
  0x76, 0x32, 0x44, 0x00, 0x04, 0x00, 0x00, 0x00, 0x10, 0x00, 0x00, 0x00,
  0x03, 0x00, 0x00, 0x00, 0x03, 0x00, 0x00, 0x00, 0x03, 0x00, 0x00, 0x00,
  0xae, 0xff, 0xff, 0xff, 0x00, 0x00, 0x00, 0x01, 0x10, 0x00, 0x00, 0x00,
  0x10, 0x00, 0x00, 0x00, 0x03, 0x00, 0x00, 0x00, 0x34, 0x00, 0x00, 0x00,
  0x04, 0xff, 0xff, 0xff, 0x25, 0x00, 0x00, 0x00, 0x6d, 0x6f, 0x64, 0x65,
  0x6c, 0x2f, 0x63, 0x6f, 0x6e, 0x76, 0x32, 0x64, 0x5f, 0x32, 0x2f, 0x42,
  0x69, 0x61, 0x73, 0x41, 0x64, 0x64, 0x2f, 0x52, 0x65, 0x61, 0x64, 0x56,
  0x61, 0x72, 0x69, 0x61, 0x62, 0x6c, 0x65, 0x4f, 0x70, 0x00, 0x00, 0x00,
  0x01, 0x00, 0x00, 0x00, 0x05, 0x00, 0x00, 0x00, 0x00, 0x00, 0x16, 0x00,
  0x18, 0x00, 0x14, 0x00, 0x00, 0x00, 0x10, 0x00, 0x0c, 0x00, 0x08, 0x00,
  0x00, 0x00, 0x00, 0x00, 0x00, 0x00, 0x07, 0x00, 0x16, 0x00, 0x00, 0x00,
  0x00, 0x00, 0x00, 0x01, 0x10, 0x00, 0x00, 0x00, 0x10, 0x00, 0x00, 0x00,
  0x02, 0x00, 0x00, 0x00, 0x48, 0x00, 0x00, 0x00, 0x6c, 0xff, 0xff, 0xff,
  0x3b, 0x00, 0x00, 0x00, 0x6d, 0x6f, 0x64, 0x65, 0x6c, 0x2f, 0x62, 0x61,
  0x74, 0x63, 0x68, 0x5f, 0x6e, 0x6f, 0x72, 0x6d, 0x61, 0x6c, 0x69, 0x7a,
  0x61, 0x74, 0x69, 0x6f, 0x6e, 0x5f, 0x31, 0x2f, 0x46, 0x75, 0x73, 0x65,
  0x64, 0x42, 0x61, 0x74, 0x63, 0x68, 0x4e, 0x6f, 0x72, 0x6d, 0x56, 0x33,
  0x2f, 0x52, 0x65, 0x61, 0x64, 0x56, 0x61, 0x72, 0x69, 0x61, 0x62, 0x6c,
  0x65, 0x4f, 0x70, 0x00, 0x01, 0x00, 0x00, 0x00, 0x10, 0x00, 0x00, 0x00,
  0x00, 0x00, 0x16, 0x00, 0x1c, 0x00, 0x18, 0x00, 0x00, 0x00, 0x14, 0x00,
  0x10, 0x00, 0x0c, 0x00, 0x00, 0x00, 0x00, 0x00, 0x08, 0x00, 0x07, 0x00,
  0x16, 0x00, 0x00, 0x00, 0x00, 0x00, 0x00, 0x01, 0x14, 0x00, 0x00, 0x00,
  0x28, 0x00, 0x00, 0x00, 0x28, 0x00, 0x00, 0x00, 0x01, 0x00, 0x00, 0x00,
  0x3c, 0x00, 0x00, 0x00, 0x04, 0x00, 0x00, 0x00, 0xff, 0xff, 0xff, 0xff,
  0x60, 0x00, 0x00, 0x00, 0x60, 0x00, 0x00, 0x00, 0x03, 0x00, 0x00, 0x00,
  0x04, 0x00, 0x04, 0x00, 0x04, 0x00, 0x00, 0x00, 0x15, 0x00, 0x00, 0x00,
  0x73, 0x65, 0x72, 0x76, 0x69, 0x6e, 0x67, 0x5f, 0x64, 0x65, 0x66, 0x61,
  0x75, 0x6c, 0x74, 0x5f, 0x69, 0x6d, 0x67, 0x3a, 0x30, 0x00, 0x00, 0x00,
  0x04, 0x00, 0x00, 0x00, 0x01, 0x00, 0x00, 0x00, 0x60, 0x00, 0x00, 0x00,
  0x60, 0x00, 0x00, 0x00, 0x03, 0x00, 0x00, 0x00, 0x03, 0x00, 0x00, 0x00,
  0x30, 0x00, 0x00, 0x00, 0x14, 0x00, 0x00, 0x00, 0x04, 0x00, 0x00, 0x00,
  0xe8, 0xff, 0xff, 0xff, 0x19, 0x00, 0x00, 0x00, 0x00, 0x00, 0x00, 0x19,
  0xf4, 0xff, 0xff, 0xff, 0x11, 0x00, 0x00, 0x00, 0x00, 0x00, 0x00, 0x11,
  0x0c, 0x00, 0x0c, 0x00, 0x0b, 0x00, 0x00, 0x00, 0x00, 0x00, 0x04, 0x00,
  0x0c, 0x00, 0x00, 0x00, 0x03, 0x00, 0x00, 0x00, 0x00, 0x00, 0x00, 0x03
};

const unsigned int modelData_len = 13956;

