unsigned char model_tflite[] = {
  0x1c, 0x00, 0x00, 0x00, 0x54, 0x46, 0x4c, 0x33, 0x14, 0x00, 0x20, 0x00,
  0x1c, 0x00, 0x18, 0x00, 0x14, 0x00, 0x10, 0x00, 0x0c, 0x00, 0x00, 0x00,
  0x08, 0x00, 0x04, 0x00, 0x14, 0x00, 0x00, 0x00, 0x1c, 0x00, 0x00, 0x00,
  0x8c, 0x00, 0x00, 0x00, 0xe4, 0x00, 0x00, 0x00, 0x44, 0x2e, 0x00, 0x00,
  0x54, 0x2e, 0x00, 0x00, 0x10, 0x36, 0x00, 0x00, 0x03, 0x00, 0x00, 0x00,
  0x01, 0x00, 0x00, 0x00, 0x10, 0x00, 0x00, 0x00, 0x00, 0x00, 0x0a, 0x00,
  0x10, 0x00, 0x0c, 0x00, 0x08, 0x00, 0x04, 0x00, 0x0a, 0x00, 0x00, 0x00,
  0x0c, 0x00, 0x00, 0x00, 0x1c, 0x00, 0x00, 0x00, 0x3c, 0x00, 0x00, 0x00,
  0x0f, 0x00, 0x00, 0x00, 0x73, 0x65, 0x72, 0x76, 0x69, 0x6e, 0x67, 0x5f,
  0x64, 0x65, 0x66, 0x61, 0x75, 0x6c, 0x74, 0x00, 0x01, 0x00, 0x00, 0x00,
  0x04, 0x00, 0x00, 0x00, 0x9c, 0xff, 0xff, 0xff, 0x0a, 0x00, 0x00, 0x00,
  0x04, 0x00, 0x00, 0x00, 0x08, 0x00, 0x00, 0x00, 0x63, 0x6f, 0x6e, 0x76,
  0x32, 0x64, 0x5f, 0x32, 0x00, 0x00, 0x00, 0x00, 0x01, 0x00, 0x00, 0x00,
  0x04, 0x00, 0x00, 0x00, 0xae, 0xd1, 0xff, 0xff, 0x04, 0x00, 0x00, 0x00,
  0x03, 0x00, 0x00, 0x00, 0x69, 0x6d, 0x67, 0x00, 0x02, 0x00, 0x00, 0x00,
  0x34, 0x00, 0x00, 0x00, 0x04, 0x00, 0x00, 0x00, 0xdc, 0xff, 0xff, 0xff,
  0x0d, 0x00, 0x00, 0x00, 0x04, 0x00, 0x00, 0x00, 0x13, 0x00, 0x00, 0x00,
  0x43, 0x4f, 0x4e, 0x56, 0x45, 0x52, 0x53, 0x49, 0x4f, 0x4e, 0x5f, 0x4d,
  0x45, 0x54, 0x41, 0x44, 0x41, 0x54, 0x41, 0x00, 0x08, 0x00, 0x0c, 0x00,
  0x08, 0x00, 0x04, 0x00, 0x08, 0x00, 0x00, 0x00, 0x0c, 0x00, 0x00, 0x00,
  0x04, 0x00, 0x00, 0x00, 0x13, 0x00, 0x00, 0x00, 0x6d, 0x69, 0x6e, 0x5f,
  0x72, 0x75, 0x6e, 0x74, 0x69, 0x6d, 0x65, 0x5f, 0x76, 0x65, 0x72, 0x73,
  0x69, 0x6f, 0x6e, 0x00, 0x0e, 0x00, 0x00, 0x00, 0x5c, 0x2d, 0x00, 0x00,
  0x54, 0x2d, 0x00, 0x00, 0x04, 0x2d, 0x00, 0x00, 0xe0, 0x2c, 0x00, 0x00,
  0x10, 0x26, 0x00, 0x00, 0x00, 0x02, 0x00, 0x00, 0xb0, 0x00, 0x00, 0x00,
  0xa8, 0x00, 0x00, 0x00, 0xa0, 0x00, 0x00, 0x00, 0x98, 0x00, 0x00, 0x00,
  0x90, 0x00, 0x00, 0x00, 0x88, 0x00, 0x00, 0x00, 0x68, 0x00, 0x00, 0x00,
  0x04, 0x00, 0x00, 0x00, 0x56, 0xd2, 0xff, 0xff, 0x04, 0x00, 0x00, 0x00,
  0x54, 0x00, 0x00, 0x00, 0x0c, 0x00, 0x00, 0x00, 0x08, 0x00, 0x0e, 0x00,
  0x08, 0x00, 0x04, 0x00, 0x08, 0x00, 0x00, 0x00, 0x10, 0x00, 0x00, 0x00,
  0x24, 0x00, 0x00, 0x00, 0x00, 0x00, 0x06, 0x00, 0x08, 0x00, 0x04, 0x00,
  0x06, 0x00, 0x00, 0x00, 0x04, 0x00, 0x00, 0x00, 0x00, 0x00, 0x00, 0x00,
  0x00, 0x00, 0x0a, 0x00, 0x10, 0x00, 0x0c, 0x00, 0x08, 0x00, 0x04, 0x00,
  0x0a, 0x00, 0x00, 0x00, 0x02, 0x00, 0x00, 0x00, 0x02, 0x00, 0x00, 0x00,
  0x04, 0x00, 0x00, 0x00, 0x06, 0x00, 0x00, 0x00, 0x32, 0x2e, 0x31, 0x33,
  0x2e, 0x30, 0x00, 0x00, 0xb6, 0xd2, 0xff, 0xff, 0x04, 0x00, 0x00, 0x00,
  0x10, 0x00, 0x00, 0x00, 0x31, 0x2e, 0x35, 0x2e, 0x30, 0x00, 0x00, 0x00,
  0x00, 0x00, 0x00, 0x00, 0x00, 0x00, 0x00, 0x00, 0xb8, 0xcb, 0xff, 0xff,
  0xbc, 0xcb, 0xff, 0xff, 0xc0, 0xcb, 0xff, 0xff, 0xc4, 0xcb, 0xff, 0xff,
  0xc8, 0xcb, 0xff, 0xff, 0xe6, 0xd2, 0xff, 0xff, 0x04, 0x00, 0x00, 0x00,
  0x40, 0x01, 0x00, 0x00, 0x84, 0x63, 0xa1, 0xbd, 0x1a, 0x22, 0xf3, 0xbe,
  0xd2, 0x0f, 0x71, 0xbe, 0x04, 0x01, 0x02, 0xbf, 0xb8, 0x3e, 0x7a, 0xbe,
  0xe4, 0x72, 0xe9, 0xbd, 0x2c, 0x22, 0xb3, 0xbe, 0xe2, 0x04, 0xc9, 0x3e,
  0x90, 0x2d, 0x00, 0xbd, 0x02, 0xb4, 0x3e, 0xbe, 0xc6, 0x4c, 0x3b, 0xbe,
  0x86, 0x25, 0xbd, 0x3e, 0x30, 0x59, 0x66, 0xbd, 0x10, 0xea, 0xc3, 0xbe,
  0x70, 0xcf, 0x9c, 0xbd, 0x06, 0x59, 0xdb, 0xbe, 0x5c, 0x93, 0x21, 0x3e,
  0x72, 0xe1, 0xd1, 0x3e, 0xa0, 0xdc, 0xcb, 0xbc, 0x7b, 0x0b, 0xf1, 0xbe,
  0xfc, 0xa2, 0x09, 0x3e, 0xc4, 0xe9, 0x63, 0x3e, 0x8a, 0x5b, 0x98, 0x3e,
  0x2c, 0x24, 0xff, 0xbd, 0x26, 0xca, 0xfa, 0x3e, 0x3c, 0xe0, 0xd4, 0x3e,
  0x20, 0xde, 0xc2, 0xbc, 0x3c, 0x11, 0x15, 0x3e, 0xcf, 0x00, 0xc9, 0xbe,
  0xe8, 0x52, 0xd9, 0xbd, 0x8a, 0x12, 0xae, 0x3e, 0x28, 0x5f, 0x12, 0x3e,
  0xf5, 0x54, 0xea, 0xbe, 0xaa, 0xb8, 0x8d, 0xbe, 0x8a, 0xd1, 0x84, 0x3e,
  0xd4, 0x36, 0x1c, 0x3e, 0x50, 0x69, 0xb1, 0xbd, 0xa2, 0x03, 0x04, 0xbf,
  0x2c, 0x33, 0xa2, 0xbd, 0xd7, 0xae, 0x00, 0x3f, 0xf0, 0xff, 0x41, 0x3d,
  0x00, 0x5e, 0x6d, 0xbc, 0xb4, 0x6d, 0xa0, 0xbd, 0xc0, 0xeb, 0xdd, 0x3c,
  0x8e, 0x8c, 0xf2, 0x3e, 0x8e, 0x24, 0x04, 0xbe, 0x4e, 0xf0, 0xdf, 0xbe,
  0x9e, 0xb8, 0x3e, 0xbe, 0x7c, 0x1e, 0xa9, 0xbe, 0x1c, 0xb2, 0xd2, 0x3e,
  0xb0, 0x31, 0xa2, 0x3e, 0x7e, 0xfd, 0xa2, 0x3e, 0xf0, 0x5f, 0x5a, 0xbe,
  0x37, 0xee, 0x06, 0x3f, 0x00, 0x8c, 0x00, 0x3d, 0x00, 0x3c, 0x59, 0x3b,
  0x42, 0x59, 0xad, 0x3e, 0x62, 0xf4, 0xf3, 0x3e, 0x82, 0x12, 0xb0, 0x3e,
  0x58, 0x07, 0x5d, 0x3e, 0x3f, 0x70, 0xba, 0xbe, 0x19, 0x6a, 0xfa, 0xbe,
  0x99, 0xfb, 0x00, 0x3f, 0x20, 0xea, 0x9b, 0x3c, 0xd6, 0xcf, 0xbd, 0xbe,
  0x14, 0x0d, 0x08, 0x3e, 0x3c, 0x76, 0xb7, 0xbe, 0x94, 0x52, 0x02, 0xbf,
  0x00, 0xa1, 0x56, 0x3e, 0x18, 0xdb, 0x95, 0x3e, 0x90, 0x12, 0x20, 0x3e,
  0x60, 0x2f, 0x33, 0xbd, 0x49, 0x7e, 0xab, 0xbe, 0x22, 0x0f, 0xcd, 0x3e,
  0x00, 0x41, 0x27, 0x3b, 0xb2, 0x57, 0x69, 0xbe, 0xb6, 0x70, 0xb2, 0x3e,
  0xa6, 0x46, 0xfc, 0x3e, 0xf0, 0x13, 0x14, 0x3d, 0x22, 0x6a, 0x98, 0x3e,
  0x32, 0xd4, 0xff, 0xff, 0x04, 0x00, 0x00, 0x00, 0x00, 0x24, 0x00, 0x00,
  0xb2, 0xab, 0x2a, 0xbd, 0xe1, 0x49, 0x38, 0xbe, 0xe4, 0xba, 0xc2, 0x3c,
  0x01, 0xba, 0xfb, 0x3d, 0x8c, 0x11, 0x80, 0xbd, 0x03, 0xda, 0x82, 0x3c,
  0x67, 0x43, 0xc8, 0xbc, 0xe3, 0x9c, 0x1d, 0xbd, 0x11, 0x19, 0x16, 0x3d,
  0x3b, 0x52, 0x1c, 0x3d, 0x27, 0x3b, 0x27, 0x3e, 0x9e, 0x3e, 0x76, 0xbe,
  0x97, 0x83, 0xe1, 0xbd, 0xdf, 0x36, 0x1a, 0x3c, 0x50, 0xe8, 0x04, 0xbe,
  0x97, 0x82, 0xbe, 0x3c, 0x86, 0x5b, 0x90, 0xbd, 0xbf, 0x3d, 0x48, 0xbe,
  0x0f, 0x95, 0x26, 0xbb, 0x70, 0xfa, 0xc2, 0x3d, 0xeb, 0xdc, 0x12, 0x3e,
  0x85, 0x71, 0x77, 0x3c, 0x45, 0x03, 0x42, 0x3d, 0xfb, 0xa6, 0x00, 0x3e,
  0xfa, 0xaa, 0x5f, 0xbe, 0x35, 0xe8, 0x99, 0x3c, 0x66, 0x34, 0x56, 0xbc,
  0x11, 0x92, 0x7d, 0x3e, 0x37, 0xc3, 0xb6, 0x3d, 0x5f, 0x17, 0xf6, 0x3c,
  0x4d, 0xae, 0x0e, 0x3e, 0xad, 0x8b, 0x3e, 0xbd, 0x1d, 0xfe, 0x69, 0x3b,
  0xfb, 0xf9, 0xd2, 0x3d, 0x3f, 0x81, 0x26, 0xbe, 0xf8, 0xc8, 0x8a, 0x3d,
  0xba, 0xbc, 0x45, 0xbd, 0x6d, 0x54, 0x40, 0x3e, 0x5c, 0x48, 0xf3, 0xbd,
  0xa0, 0x8a, 0x6d, 0x3e, 0xc9, 0xbb, 0x8c, 0xbd, 0x8c, 0xc6, 0xae, 0x3d,
  0x3b, 0x00, 0x2f, 0xbe, 0xf5, 0xb3, 0xca, 0xbd, 0xad, 0xd7, 0x75, 0xbd,
  0x41, 0x1d, 0xab, 0xbd, 0x62, 0x45, 0xdc, 0xbc, 0x2f, 0xc2, 0x94, 0x3d,
  0xf2, 0x59, 0x85, 0x3e, 0x79, 0xa9, 0xd5, 0xbc, 0x0f, 0xeb, 0x90, 0x3c,
  0x9e, 0x56, 0x8d, 0x3d, 0x3d, 0x71, 0x3a, 0x3e, 0x86, 0xd3, 0x6f, 0x3c,
  0x60, 0x70, 0xe6, 0xbd, 0xc8, 0xfa, 0xfd, 0x3d, 0x32, 0x3b, 0x07, 0xbe,
  0xde, 0x24, 0x3e, 0x3e, 0x37, 0x63, 0x40, 0x3e, 0xf3, 0x07, 0x06, 0x3e,
  0x09, 0x15, 0x70, 0xbd, 0x31, 0x13, 0x3f, 0x3d, 0xd4, 0x80, 0x2a, 0x3c,
  0x4b, 0x0a, 0x55, 0xbe, 0x6c, 0xed, 0x32, 0xbe, 0xee, 0xa1, 0xab, 0x3c,
  0x9e, 0x26, 0x38, 0xbc, 0xe8, 0x29, 0xa8, 0xbd, 0xd3, 0xd2, 0x1c, 0xbe,
  0xd1, 0xd8, 0xa1, 0xbc, 0x3e, 0x28, 0x25, 0xbc, 0xac, 0xd8, 0x11, 0x3c,
  0xd6, 0x55, 0x0b, 0x3e, 0x1c, 0x71, 0xcb, 0xbd, 0x23, 0xf9, 0x6d, 0xbe,
  0xd5, 0x73, 0x24, 0x3e, 0x5c, 0x08, 0x05, 0xbe, 0xcb, 0x33, 0x0a, 0x3d,
  0x98, 0x2d, 0xb6, 0x3d, 0x18, 0x26, 0x1f, 0xbd, 0xdf, 0x02, 0x2f, 0xbe,
  0x0f, 0x0f, 0x59, 0x3b, 0x37, 0x23, 0x03, 0x3d, 0xa4, 0xc2, 0x1e, 0xbd,
  0xf2, 0xcb, 0x36, 0xbe, 0xd5, 0x93, 0xd5, 0xbc, 0x33, 0x89, 0x1e, 0x3d,
  0xb3, 0x20, 0xf5, 0xbc, 0x1f, 0xba, 0x90, 0xbc, 0xa6, 0x52, 0x92, 0xbc,
  0x82, 0x25, 0x3b, 0x3e, 0x4d, 0x08, 0x78, 0x3e, 0xf9, 0xc7, 0xfa, 0x3c,
  0x29, 0x3a, 0x0c, 0xbc, 0xea, 0x6f, 0xb5, 0xbd, 0xc1, 0x90, 0x50, 0xbe,
  0x53, 0xd9, 0x0a, 0xbe, 0x20, 0x7a, 0x94, 0x3d, 0xf0, 0xd4, 0x5b, 0xbe,
  0xcc, 0xe0, 0x5c, 0x3e, 0xd7, 0xae, 0x3a, 0x3e, 0xb8, 0x96, 0x25, 0x3c,
  0x7b, 0x50, 0xe1, 0x3c, 0x17, 0xeb, 0xec, 0xbd, 0xe2, 0x20, 0x00, 0x3e,
  0x4d, 0x93, 0x31, 0xbe, 0xe6, 0xd5, 0x8d, 0xbd, 0xbc, 0x93, 0x1d, 0xbe,
  0x50, 0x09, 0x2e, 0xbd, 0xb4, 0x0f, 0x6a, 0xbe, 0x26, 0xce, 0x0f, 0xbc,
  0xb8, 0xe9, 0x99, 0x3d, 0xf7, 0x1a, 0xcf, 0xbd, 0x90, 0x4a, 0xa9, 0xbd,
  0x1e, 0xfe, 0xd8, 0x3d, 0x7d, 0x8e, 0x9d, 0xbc, 0x39, 0xd5, 0xcf, 0xbd,
  0xfe, 0xa4, 0xad, 0xbd, 0x55, 0x12, 0xee, 0x3d, 0xfd, 0xfa, 0x3c, 0x3d,
  0x2a, 0x0c, 0xe2, 0xbd, 0x55, 0xf4, 0xf1, 0xbd, 0x2a, 0xe4, 0x41, 0x3d,
  0xa3, 0x8a, 0xc3, 0xbd, 0xeb, 0x60, 0x76, 0xbe, 0x6e, 0xf0, 0xd6, 0xbd,
  0x30, 0x14, 0x0b, 0x3e, 0x7e, 0xe8, 0x17, 0x3e, 0x8c, 0x36, 0x7d, 0xbd,
  0xb6, 0x13, 0xed, 0x3d, 0x63, 0x05, 0x98, 0x3d, 0x4d, 0x97, 0x3e, 0x3e,
  0x86, 0x40, 0x82, 0x3e, 0x64, 0x28, 0x32, 0xbe, 0xda, 0xc8, 0x9b, 0x3d,
  0x3f, 0xb5, 0xff, 0x3b, 0xe4, 0xde, 0xe7, 0xbd, 0xa2, 0x75, 0xe2, 0xbc,
  0xb9, 0x7b, 0xba, 0x3d, 0xb2, 0x5b, 0x73, 0x3e, 0x2a, 0x13, 0x90, 0xbd,
  0x97, 0xa4, 0x1c, 0x3c, 0x05, 0x18, 0xdb, 0x3d, 0x48, 0xd1, 0x48, 0xbd,
  0xd9, 0xb4, 0x0e, 0xbe, 0xc7, 0x1e, 0x1b, 0xbd, 0xe5, 0x80, 0x51, 0x3d,
  0x28, 0xdc, 0x5b, 0xbe, 0x4d, 0x15, 0x18, 0xbe, 0x4a, 0xad, 0x14, 0x3e,
  0x76, 0xb2, 0x36, 0xbe, 0x26, 0x18, 0x2f, 0x3e, 0x89, 0xb3, 0x3d, 0xbd,
  0x96, 0x3d, 0xcb, 0xbd, 0xf5, 0x7e, 0x61, 0x3e, 0x36, 0x72, 0x1c, 0x3e,
  0x30, 0x27, 0x28, 0xbd, 0x5d, 0x74, 0x14, 0x3e, 0x0d, 0xbe, 0x90, 0x3d,
  0xde, 0xc8, 0x95, 0xbc, 0x32, 0xb0, 0x3f, 0x3d, 0xa8, 0xce, 0x1b, 0xbe,
  0x05, 0xfd, 0x40, 0xbd, 0x2a, 0x8b, 0x22, 0x3d, 0x2b, 0x92, 0x87, 0x3e,
  0xe4, 0x8e, 0xc4, 0x3d, 0x72, 0x13, 0x94, 0xbd, 0x5b, 0x04, 0xb2, 0xbc,
  0x71, 0xf6, 0x87, 0x3d, 0xc6, 0xd5, 0xa9, 0xba, 0x92, 0x47, 0x35, 0xbd,
  0x3a, 0x08, 0x29, 0x3d, 0x5b, 0xbf, 0x83, 0x3d, 0x24, 0xb2, 0x97, 0xbd,
  0x45, 0xaa, 0x3e, 0x3a, 0x42, 0x9d, 0xe4, 0xbd, 0x6e, 0x7e, 0xa0, 0x3d,
  0xff, 0xd5, 0x31, 0x3e, 0xcb, 0x2e, 0xdf, 0xbd, 0x63, 0x3a, 0x20, 0xbd,
  0xb9, 0x0f, 0x02, 0xbd, 0x80, 0xe0, 0xbf, 0xbc, 0x30, 0xf4, 0x29, 0x3e,
  0x6d, 0x00, 0xd2, 0xbd, 0x46, 0x2f, 0xc8, 0xbd, 0xc8, 0x8f, 0xd2, 0x3b,
  0x6f, 0x68, 0xe4, 0xbd, 0xce, 0xc0, 0x36, 0x3c, 0x09, 0xee, 0xe8, 0x3c,
  0x50, 0xda, 0x9f, 0x3d, 0x0d, 0x07, 0x9f, 0x3d, 0xda, 0x71, 0xd0, 0xbd,
  0x34, 0x57, 0xed, 0xbd, 0x4b, 0x50, 0xf9, 0x3d, 0xb1, 0xbf, 0xf0, 0x3d,
  0xa2, 0x13, 0xe2, 0x3c, 0x5f, 0x94, 0x27, 0xbd, 0x62, 0x04, 0xac, 0x3d,
  0xd4, 0xf5, 0x9a, 0x3d, 0xb9, 0x17, 0xee, 0xbc, 0x42, 0x84, 0xc6, 0xbc,
  0x1d, 0xc7, 0x9d, 0x3d, 0x07, 0x7f, 0xf4, 0xbb, 0x14, 0x3c, 0xa6, 0xbc,
  0x79, 0xd3, 0xb8, 0x3d, 0x43, 0x63, 0xfe, 0x3d, 0x41, 0x54, 0xc9, 0x3d,
  0x9b, 0x40, 0x98, 0x3d, 0x15, 0x67, 0xf3, 0x3d, 0x79, 0xce, 0xd5, 0x3d,
  0xb5, 0x6b, 0x21, 0x3d, 0xd5, 0x8c, 0x11, 0x3e, 0x9b, 0x08, 0x56, 0xbd,
  0x94, 0xc1, 0x07, 0xbd, 0xaa, 0xda, 0x2d, 0xbe, 0xdc, 0xc9, 0x83, 0xbd,
  0x98, 0x35, 0xae, 0xbd, 0xeb, 0x38, 0xed, 0x3c, 0x33, 0x11, 0x08, 0xba,
  0x4d, 0x39, 0x6e, 0x3d, 0x48, 0x0a, 0x88, 0x3d, 0xfb, 0x95, 0x74, 0x3e,
  0x1d, 0xf1, 0x12, 0xbd, 0x91, 0xc5, 0x01, 0xbd, 0x40, 0xca, 0xa6, 0xbd,
  0x78, 0x3a, 0x79, 0x3e, 0xdd, 0xb1, 0x95, 0xbd, 0xea, 0x33, 0xd0, 0xbd,
  0x0b, 0x6c, 0xa9, 0xbb, 0x1d, 0xe2, 0x8d, 0xbd, 0x67, 0xcf, 0x35, 0x3e,
  0x6c, 0x1b, 0x9a, 0xbd, 0xcd, 0xa2, 0x9a, 0xbd, 0xc0, 0x3a, 0x87, 0xbe,
  0xb1, 0x6c, 0x82, 0x3e, 0x8a, 0x76, 0xf7, 0x3d, 0x16, 0xa1, 0x44, 0xba,
  0x19, 0x85, 0xf9, 0xbc, 0xc5, 0xb9, 0xf2, 0x3d, 0x5e, 0x4b, 0x6c, 0xbe,
  0xa6, 0xa9, 0x26, 0x3e, 0x6e, 0xb4, 0x82, 0x3d, 0xd5, 0x6b, 0x20, 0x3e,
  0xa2, 0x7c, 0xe4, 0xbd, 0x04, 0x04, 0x47, 0xbe, 0xb2, 0x33, 0x41, 0xbd,
  0x34, 0x0b, 0x45, 0x3e, 0xad, 0x5c, 0x78, 0xbb, 0xda, 0x8f, 0x5e, 0x3e,
  0x4b, 0x52, 0x26, 0x3e, 0xba, 0x1f, 0xfc, 0x3d, 0x8b, 0x5d, 0x49, 0xbe,
  0x65, 0x53, 0x83, 0xbd, 0x89, 0x87, 0x44, 0xbd, 0xbb, 0xe2, 0x93, 0x3d,
  0x4b, 0x92, 0xa7, 0xbd, 0x3c, 0x9f, 0xbd, 0x3d, 0xf4, 0x2e, 0xff, 0xbd,
  0x24, 0xc7, 0x56, 0xbe, 0x4c, 0x54, 0x85, 0xbc, 0x97, 0x6c, 0x97, 0xbd,
  0xe1, 0xab, 0x53, 0x3e, 0x80, 0xb0, 0xef, 0x3d, 0x06, 0x43, 0xa9, 0x3d,
  0xdc, 0x9a, 0x85, 0xbe, 0x66, 0xb1, 0x08, 0xbd, 0x29, 0x2a, 0x48, 0x3d,
  0xc0, 0x80, 0x3e, 0xbd, 0xab, 0xb5, 0x49, 0x3d, 0xd5, 0x65, 0x21, 0xbe,
  0x5f, 0x67, 0x0a, 0xbe, 0xb0, 0xe0, 0x2c, 0x3d, 0x9a, 0xab, 0xa1, 0xbd,
  0xa1, 0xd4, 0x1a, 0x3e, 0xb2, 0xe0, 0xa0, 0xbd, 0xda, 0x87, 0x42, 0x3e,
  0x01, 0xfa, 0x94, 0xbd, 0x7c, 0x98, 0x13, 0x3e, 0xe6, 0xcb, 0xc9, 0x3c,
  0xfe, 0xee, 0x25, 0xbb, 0xb5, 0xe7, 0x4e, 0xbd, 0x63, 0xda, 0x43, 0x3d,
  0x11, 0x9e, 0x98, 0x3d, 0x8b, 0x18, 0xd7, 0xbc, 0xb3, 0x00, 0xcf, 0xbc,
  0x80, 0x5d, 0x30, 0xbe, 0xce, 0x62, 0x77, 0xbd, 0x12, 0x03, 0x70, 0x3e,
  0x2b, 0x5f, 0xad, 0x3c, 0x44, 0x11, 0x4c, 0x3e, 0x10, 0x21, 0x0e, 0x3e,
  0xcb, 0xae, 0x58, 0x3e, 0x4f, 0x8c, 0xad, 0x3d, 0xa3, 0x0d, 0x08, 0x3e,
  0x94, 0x97, 0x88, 0xbe, 0x0f, 0x53, 0x68, 0x3d, 0x25, 0x67, 0x2f, 0xbd,
  0x41, 0x05, 0x14, 0x3e, 0x92, 0x94, 0x21, 0xbd, 0xd3, 0xb5, 0x0c, 0x3e,
  0xd7, 0x3b, 0xf1, 0xbb, 0xb2, 0x88, 0x4a, 0xbc, 0x57, 0x33, 0x83, 0xbb,
  0x5f, 0x5e, 0x36, 0xbd, 0x3b, 0xe6, 0x8f, 0xbd, 0x39, 0x89, 0x39, 0xbe,
  0x93, 0xc6, 0x21, 0x3e, 0xbc, 0xd7, 0xa9, 0x3d, 0x2b, 0x71, 0xa1, 0x3d,
  0x9e, 0xff, 0xf2, 0x3d, 0x36, 0x46, 0x92, 0xbd, 0x51, 0x9d, 0xdb, 0xbd,
  0x6e, 0xdb, 0xae, 0x3d, 0xc6, 0xce, 0xe7, 0x3d, 0xfb, 0xae, 0x3b, 0xb9,
  0x8a, 0x77, 0xfc, 0x3d, 0x9e, 0x6e, 0x9d, 0x3c, 0xe3, 0x56, 0x15, 0x3d,
  0x8b, 0x4e, 0x22, 0xbd, 0x3c, 0x56, 0x91, 0x3d, 0x67, 0xcc, 0x1c, 0xbe,
  0xe7, 0xe0, 0xbd, 0x3d, 0x90, 0xbf, 0x22, 0xbe, 0x30, 0x16, 0xb4, 0x3c,
  0x4d, 0x24, 0x06, 0xbe, 0x82, 0x05, 0x6b, 0xbe, 0x26, 0x42, 0x82, 0xbd,
  0x9c, 0xce, 0xb8, 0x3d, 0xf5, 0x8b, 0x20, 0x3c, 0xa9, 0xae, 0x50, 0x3e,
  0xf3, 0xfe, 0x14, 0xbd, 0x99, 0x49, 0x74, 0xbb, 0xd2, 0x5c, 0xa8, 0xbd,
  0x3f, 0x9d, 0x9f, 0x3d, 0x35, 0x5c, 0x93, 0xbd, 0x11, 0xf6, 0xd7, 0xbd,
  0x06, 0x7d, 0x45, 0x3e, 0x8e, 0x5d, 0x4c, 0x3e, 0xa4, 0x9b, 0x65, 0x3d,
  0x1d, 0x3f, 0x6e, 0x3d, 0x4b, 0xb4, 0xfb, 0xbd, 0x23, 0xf0, 0xde, 0xbd,
  0x53, 0x1b, 0xf9, 0xbc, 0xf2, 0xd3, 0x40, 0x3d, 0x6d, 0x78, 0xd5, 0xbc,
  0x59, 0x05, 0xa6, 0x3c, 0x06, 0x28, 0xed, 0xbd, 0x10, 0x30, 0x95, 0x3d,
  0xdb, 0x0d, 0x51, 0x3d, 0x9f, 0x66, 0x13, 0xbd, 0x85, 0x7d, 0x2a, 0xbd,
  0x12, 0x99, 0xd9, 0xbc, 0x9a, 0xd1, 0x24, 0xbe, 0xdc, 0xc4, 0x1c, 0xbd,
  0x76, 0x1d, 0x98, 0xbd, 0xbf, 0x39, 0x85, 0x3e, 0xa7, 0x83, 0x24, 0xbd,
  0xae, 0x94, 0x6a, 0x3e, 0x03, 0x3e, 0x01, 0xbe, 0x51, 0x17, 0x46, 0xbc,
  0x48, 0xc0, 0xbb, 0xbb, 0x94, 0x3b, 0x91, 0x3d, 0x7e, 0xbd, 0x56, 0xbe,
  0x49, 0xc3, 0x92, 0x3d, 0xd0, 0xe6, 0x2a, 0xbd, 0x6e, 0x49, 0x26, 0xbe,
  0x0c, 0x2f, 0xc6, 0x3b, 0x1c, 0x94, 0x12, 0x3e, 0x6d, 0x67, 0xa5, 0xbd,
  0xcc, 0xb8, 0xbb, 0x3c, 0xde, 0xb7, 0x77, 0xbb, 0x3d, 0x6d, 0xc2, 0x3d,
  0xe0, 0x04, 0x17, 0xbd, 0x05, 0xcd, 0x35, 0xbd, 0xad, 0xc3, 0x8b, 0x3d,
  0x43, 0xf5, 0x47, 0xbe, 0xa9, 0xe3, 0xb3, 0xbd, 0xda, 0x59, 0x07, 0x3e,
  0xe6, 0x3e, 0x36, 0x3e, 0xa9, 0x79, 0x54, 0x3e, 0x99, 0x26, 0x88, 0x3d,
  0x05, 0x94, 0x5b, 0x3d, 0x3e, 0xc3, 0x3b, 0x3e, 0x3a, 0x7d, 0x8e, 0x3d,
  0x76, 0x84, 0x93, 0xbc, 0x73, 0x64, 0x2c, 0x3d, 0x90, 0x4c, 0x05, 0x3e,
  0x0a, 0xfd, 0x3b, 0x3c, 0x36, 0xa4, 0x93, 0xbd, 0x95, 0xf0, 0x8a, 0x3c,
  0x9c, 0x15, 0x6d, 0xbd, 0x0f, 0x2b, 0xf4, 0x3c, 0x8b, 0x0c, 0xab, 0xbd,
  0xd5, 0x8b, 0x50, 0xbb, 0x83, 0x92, 0xe1, 0xbd, 0xd6, 0xff, 0xaf, 0x3d,
  0x79, 0xd2, 0x66, 0xbd, 0xaf, 0x5f, 0x10, 0x3e, 0xa5, 0x17, 0x83, 0x3e,
  0xde, 0x60, 0xb1, 0x3d, 0x21, 0x00, 0x4c, 0xbd, 0xc8, 0x26, 0x81, 0xbe,
  0xf7, 0x9f, 0xd2, 0xbc, 0x05, 0x2e, 0x1e, 0x3e, 0x6b, 0x1f, 0x13, 0x3e,
  0x86, 0x74, 0x32, 0xbd, 0xde, 0x4b, 0xd0, 0x3d, 0x78, 0x8d, 0x4b, 0x3b,
  0x9e, 0xfc, 0xe5, 0xbd, 0x74, 0xb1, 0xc2, 0x3d, 0xd2, 0x49, 0x7a, 0x3e,
  0x0e, 0xa5, 0x04, 0x3d, 0xbc, 0x72, 0x14, 0x3e, 0xb9, 0x68, 0x6f, 0x3e,
  0x86, 0x5f, 0xa8, 0x3d, 0x17, 0x72, 0x27, 0xbe, 0xd9, 0x99, 0xb6, 0x3d,
  0x8b, 0xf5, 0xcd, 0x3c, 0x51, 0x50, 0x5f, 0xbd, 0x47, 0x13, 0x55, 0x3e,
  0xe3, 0x49, 0xda, 0x3c, 0x42, 0xcc, 0x66, 0xbe, 0xb6, 0x02, 0x18, 0xbe,
  0x46, 0x15, 0xc7, 0x3d, 0x8b, 0xdf, 0xa4, 0xbd, 0x0d, 0x24, 0x03, 0xbc,
  0xaf, 0x2c, 0x1c, 0xbb, 0x4f, 0x79, 0x23, 0x3e, 0x0a, 0x0d, 0x54, 0xbe,
  0xb0, 0xc5, 0xcd, 0xbd, 0x21, 0xc1, 0xdd, 0x3d, 0x51, 0x60, 0x05, 0xbd,
  0xa5, 0x5d, 0xf4, 0x3d, 0x0b, 0x87, 0x01, 0xbc, 0x55, 0x54, 0xdc, 0x3d,
  0x89, 0x37, 0x0b, 0x3e, 0x78, 0x8a, 0x9f, 0xbc, 0x60, 0x68, 0x72, 0xbd,
  0x2f, 0x19, 0xa8, 0x3c, 0x0e, 0xaa, 0x71, 0xbe, 0x93, 0xd5, 0x1f, 0x3c,
  0x5c, 0xa9, 0x34, 0xbd, 0x24, 0x96, 0xf2, 0x3d, 0x3d, 0x1c, 0x4a, 0x3e,
  0x2e, 0x11, 0x3a, 0xbe, 0x75, 0xab, 0x1c, 0x3d, 0xe2, 0xe1, 0x0b, 0xbe,
  0x8f, 0x5c, 0x68, 0xbd, 0xf5, 0x7c, 0x30, 0xbe, 0xb8, 0x44, 0x1f, 0xbe,
  0xfc, 0xcb, 0x62, 0x3e, 0xcf, 0xbf, 0xed, 0xbd, 0x86, 0xe7, 0x91, 0x3d,
  0x1c, 0x05, 0xf8, 0x3d, 0xa4, 0xaa, 0xcd, 0xbd, 0x2b, 0x78, 0xa7, 0xbd,
  0xab, 0x00, 0x7f, 0x3e, 0x58, 0x43, 0x06, 0xbe, 0x3b, 0xbd, 0xb0, 0x3d,
  0x5b, 0x34, 0x8d, 0x3c, 0x71, 0x02, 0x39, 0xbe, 0x35, 0x64, 0xb0, 0xbc,
  0xc1, 0x75, 0x7b, 0xbd, 0x40, 0x9a, 0x10, 0x3d, 0xec, 0x97, 0x5f, 0xbd,
  0xd3, 0xa5, 0xb2, 0x3d, 0xa7, 0x34, 0x1a, 0x3e, 0x69, 0xcd, 0x26, 0xbc,
  0x6c, 0x1d, 0x55, 0xbe, 0xe0, 0xee, 0xd5, 0x3c, 0x76, 0x3e, 0x94, 0x3c,
  0x31, 0x01, 0x72, 0xbd, 0x2e, 0x16, 0xfb, 0xbd, 0xf1, 0x84, 0x09, 0xbd,
  0x04, 0x1b, 0x81, 0xbd, 0x28, 0x66, 0xa0, 0xbd, 0xbc, 0x88, 0x37, 0xbd,
  0xba, 0x89, 0x3a, 0x3d, 0x94, 0x6f, 0xd2, 0x3d, 0xd7, 0x50, 0xe4, 0xbc,
  0x0b, 0x15, 0xaa, 0x3d, 0x99, 0x82, 0xea, 0xbc, 0x7b, 0x7e, 0xf3, 0x3b,
  0xf1, 0xab, 0x03, 0xbe, 0x85, 0xb4, 0x3d, 0xbc, 0x20, 0x9e, 0x13, 0x3c,
  0xc3, 0xbb, 0x5d, 0x3e, 0x6e, 0x5b, 0x09, 0x3e, 0x89, 0x8f, 0xa4, 0x3d,
  0xc2, 0xc3, 0xca, 0xbd, 0x43, 0xda, 0xf2, 0x3d, 0x71, 0x12, 0x4b, 0xbe,
  0xb6, 0x01, 0x50, 0xbd, 0xa2, 0xa1, 0x04, 0xbe, 0xe4, 0x35, 0xf7, 0x3c,
  0x0a, 0xe6, 0x00, 0xbc, 0x6e, 0xbc, 0x7b, 0x3d, 0x04, 0x38, 0x08, 0xbd,
  0x86, 0x41, 0x16, 0xbe, 0x00, 0xd1, 0x66, 0x3c, 0x44, 0x94, 0x8d, 0x3b,
  0xf8, 0x52, 0x1a, 0x3d, 0x95, 0x2c, 0x15, 0xbd, 0xa3, 0xf8, 0xc4, 0x3d,
  0xed, 0xe3, 0x80, 0xbd, 0x17, 0xd2, 0x62, 0x3e, 0xb1, 0xbf, 0xfc, 0xbd,
  0x77, 0xef, 0xb2, 0x3d, 0xd9, 0xfa, 0x04, 0x3e, 0x12, 0x52, 0x9d, 0x3d,
  0x8f, 0x1a, 0x91, 0xbd, 0xc0, 0x5b, 0x2a, 0x3d, 0xb6, 0x9d, 0x74, 0x3e,
  0x75, 0xfd, 0x3d, 0xbe, 0x3c, 0xb4, 0x0e, 0x3e, 0xd8, 0x24, 0x1e, 0xbe,
  0x45, 0x55, 0x38, 0xbe, 0xf3, 0x76, 0x29, 0x3d, 0xb6, 0x51, 0x45, 0x3d,
  0x5e, 0xa0, 0x18, 0x3d, 0x2b, 0x3e, 0x42, 0xbd, 0x5d, 0x41, 0x4d, 0xbe,
  0x50, 0x36, 0xe5, 0xbd, 0x52, 0x65, 0x8b, 0x3d, 0xea, 0x86, 0x86, 0xbd,
  0xd4, 0x30, 0x22, 0xbd, 0x2e, 0xe9, 0xaf, 0xbd, 0x80, 0xc3, 0x23, 0xbe,
  0x73, 0xa7, 0x18, 0xbe, 0xc0, 0x23, 0x43, 0xbe, 0x4b, 0x6e, 0x27, 0xbe,
  0x36, 0x3b, 0xed, 0x3d, 0x23, 0x8e, 0x1b, 0xbd, 0x1a, 0xa5, 0x35, 0xbd,
  0x0d, 0xf6, 0x05, 0x3e, 0x05, 0xa1, 0x37, 0x3e, 0x65, 0x06, 0x86, 0xbd,
  0x8d, 0x2b, 0x9e, 0x3c, 0x97, 0x5e, 0xbe, 0x3d, 0x7a, 0x78, 0x4f, 0xbe,
  0xcb, 0x63, 0x40, 0xbe, 0x19, 0x68, 0x57, 0xbd, 0xd7, 0x78, 0x33, 0xbe,
  0xce, 0xa8, 0x77, 0xbe, 0x52, 0xc3, 0xa3, 0x3d, 0xf7, 0xcf, 0x0d, 0x3e,
  0x11, 0x0e, 0xc6, 0xbd, 0xd5, 0xf8, 0xc1, 0x3b, 0x3a, 0xd2, 0x2b, 0x3e,
  0xac, 0xb2, 0x46, 0xbe, 0x9f, 0xbb, 0xd8, 0xbd, 0x9b, 0x68, 0xe1, 0xbd,
  0x3b, 0x39, 0x08, 0x3d, 0xe6, 0x28, 0x81, 0x3d, 0x61, 0x5e, 0x3d, 0xbd,
  0xca, 0x72, 0x32, 0xbd, 0x40, 0x9b, 0x0d, 0xbe, 0xdb, 0xde, 0x07, 0x3d,
  0xb3, 0x36, 0x05, 0x3d, 0xad, 0x59, 0xdf, 0x3c, 0x7b, 0x08, 0xf7, 0xbd,
  0x52, 0xfa, 0x0c, 0xbe, 0xa4, 0xf0, 0x2f, 0xbc, 0xaf, 0x0f, 0x83, 0xbd,
  0xcd, 0x98, 0x1d, 0xbe, 0x7c, 0x37, 0xc6, 0x3d, 0xf3, 0x9c, 0xc6, 0x3d,
  0x3c, 0xfb, 0xf3, 0x3d, 0xbe, 0xea, 0xcb, 0xbc, 0x7c, 0x0c, 0x75, 0x3e,
  0xa9, 0x02, 0x1c, 0xbe, 0xc3, 0xb9, 0x49, 0xbe, 0x84, 0x5f, 0xed, 0x3d,
  0x22, 0x74, 0x22, 0x3e, 0xb5, 0x71, 0xef, 0xbb, 0x44, 0x73, 0xd4, 0xbd,
  0x0a, 0x18, 0xa1, 0xbd, 0x2e, 0xe2, 0xb1, 0x3d, 0xf3, 0xb1, 0x57, 0xbd,
  0x7a, 0xb9, 0x88, 0xbc, 0x6a, 0x99, 0xa3, 0xbc, 0x44, 0x7c, 0x9e, 0xbd,
  0x1d, 0x3e, 0xe1, 0x3d, 0xdb, 0x36, 0xd9, 0x38, 0x74, 0x5b, 0xe1, 0x3d,
  0x17, 0xe4, 0xa2, 0xbc, 0x6d, 0xb1, 0x99, 0xbc, 0x57, 0x90, 0x21, 0x3e,
  0x76, 0x7c, 0x8e, 0xbd, 0xcc, 0xd9, 0x11, 0x3e, 0xe8, 0x58, 0x15, 0xbd,
  0xd8, 0x06, 0x6c, 0xbd, 0x1a, 0xb7, 0x0d, 0x3d, 0x0e, 0x0d, 0x4d, 0x3d,
  0xfb, 0xe5, 0xc7, 0xbd, 0x14, 0x3c, 0x61, 0xbd, 0x83, 0x55, 0xa2, 0x3d,
  0x8c, 0xb8, 0x57, 0xbd, 0x18, 0xe3, 0x3a, 0xbe, 0xf9, 0x76, 0x95, 0xbd,
  0x37, 0x1c, 0x85, 0x3d, 0x26, 0xc5, 0x58, 0xbe, 0xe2, 0xae, 0xc7, 0x3b,
  0x6e, 0x48, 0x3c, 0xbd, 0x4e, 0xa8, 0x0f, 0x3e, 0x77, 0xcd, 0x57, 0xbe,
  0xd9, 0x3f, 0xc7, 0xbd, 0x75, 0xcf, 0x88, 0xbd, 0xf6, 0x86, 0x5a, 0xbe,
  0xd5, 0xf6, 0xf0, 0x3b, 0xb4, 0xc1, 0x54, 0x3e, 0x4e, 0xe9, 0xc5, 0x3c,
  0x9c, 0x69, 0x2a, 0xbd, 0x06, 0x37, 0x2c, 0xba, 0xea, 0xd3, 0x2d, 0x3d,
  0x2d, 0x1b, 0x15, 0xbe, 0x75, 0xe8, 0xa1, 0x3c, 0xc0, 0x3e, 0x04, 0xbd,
  0x55, 0xa1, 0x84, 0x3d, 0x9e, 0x97, 0xbb, 0xbd, 0x39, 0x1e, 0x8a, 0x3d,
  0x05, 0xe0, 0x9c, 0x3d, 0xc1, 0x38, 0xb1, 0xbd, 0x02, 0x87, 0x85, 0xbd,
  0x2e, 0x6f, 0x18, 0x3e, 0xe7, 0x1e, 0x47, 0x3d, 0xd4, 0x4d, 0xe1, 0xbd,
  0x53, 0x1c, 0x66, 0x3e, 0xd2, 0x54, 0xb0, 0xbd, 0x4d, 0xd7, 0xa6, 0xbd,
  0xe1, 0x60, 0x9b, 0xbd, 0xfa, 0xe8, 0x9e, 0xbd, 0xf5, 0xea, 0xff, 0xbd,
  0xfc, 0xcb, 0x41, 0xbd, 0xe1, 0x62, 0xe9, 0x3d, 0x9b, 0x87, 0x60, 0x3d,
  0xf2, 0x0d, 0xae, 0xbd, 0x74, 0x06, 0xb9, 0xbd, 0xf1, 0x6a, 0x2c, 0xbe,
  0x40, 0xf5, 0xd1, 0xbc, 0xef, 0x3f, 0x8a, 0x3d, 0xfa, 0xf7, 0x64, 0xbc,
  0xf7, 0xb9, 0x11, 0x3d, 0xb4, 0x27, 0x73, 0xbe, 0x0b, 0x14, 0x08, 0xbd,
  0xdb, 0xc2, 0x98, 0x3d, 0xd1, 0x8c, 0x40, 0x3c, 0xc7, 0x9d, 0x42, 0xbd,
  0xe5, 0x74, 0x57, 0xbe, 0xb7, 0x33, 0xf3, 0x3d, 0xf8, 0xb2, 0x79, 0xbc,
  0x6e, 0x94, 0x4f, 0xbe, 0x7b, 0x37, 0x02, 0x3c, 0xfb, 0x26, 0x0e, 0xbe,
  0xef, 0x78, 0x32, 0xbe, 0xb6, 0xf6, 0x50, 0x3d, 0x58, 0x6a, 0xa9, 0x3c,
  0x75, 0x65, 0xc5, 0x3d, 0xa6, 0xb3, 0xea, 0xbd, 0x33, 0x5f, 0xc4, 0xbd,
  0xd3, 0xfe, 0xc6, 0xbc, 0x07, 0x7e, 0xa0, 0xbd, 0x80, 0x7e, 0x27, 0x3e,
  0xa1, 0x62, 0xd5, 0xbd, 0x50, 0xe3, 0x4e, 0xbe, 0xfa, 0x04, 0x8d, 0xbd,
  0x84, 0x69, 0xe6, 0x3d, 0x64, 0xe1, 0xa6, 0x3d, 0x7a, 0xee, 0xdf, 0x3d,
  0x48, 0xe3, 0xe7, 0xbc, 0x68, 0x98, 0xcc, 0xbc, 0x16, 0x20, 0xba, 0x3d,
  0xc6, 0x2b, 0x50, 0xbc, 0xba, 0xcb, 0x06, 0x3e, 0x96, 0xb2, 0x0e, 0x3d,
  0x3b, 0xd3, 0x01, 0x3e, 0x33, 0xa6, 0xb2, 0x3d, 0x5d, 0x94, 0x97, 0x3c,
  0x8c, 0xf9, 0xfa, 0x3d, 0x59, 0x4e, 0xa5, 0xbb, 0xf4, 0xa6, 0x2d, 0x3e,
  0x13, 0x00, 0xd9, 0x3c, 0xe5, 0x14, 0x16, 0x3e, 0x3c, 0x1f, 0xef, 0xbc,
  0xd1, 0xf0, 0xc4, 0xbd, 0x4a, 0x4a, 0x5a, 0xbd, 0xe4, 0x86, 0x29, 0xbd,
  0x07, 0xbe, 0x6e, 0x3e, 0xbf, 0x30, 0x37, 0x3d, 0x8f, 0xf6, 0x82, 0xbd,
  0x4d, 0x50, 0x3e, 0x3e, 0x85, 0x22, 0x3b, 0xbc, 0x8f, 0x31, 0x19, 0xbe,
  0xad, 0xb4, 0x1b, 0x3e, 0xcd, 0x31, 0x49, 0xbe, 0x50, 0x04, 0x44, 0x3c,
  0x93, 0x75, 0xc1, 0x3d, 0x10, 0xff, 0x7b, 0x3e, 0x07, 0xcf, 0x94, 0xbd,
  0x8f, 0xac, 0x8f, 0xbd, 0xd9, 0x5e, 0x1a, 0x3e, 0x01, 0x42, 0x9d, 0xbd,
  0xfb, 0x41, 0xdd, 0xbd, 0x60, 0x4a, 0xd6, 0x3d, 0xaa, 0xc0, 0x47, 0xbd,
  0x1d, 0xd8, 0x02, 0x3d, 0x57, 0x43, 0x3d, 0x3e, 0x78, 0x0b, 0xbc, 0x3d,
  0x1c, 0x3e, 0x5f, 0xbe, 0x92, 0xc3, 0x56, 0x3e, 0x4c, 0x1e, 0x69, 0xbd,
  0xd6, 0xb0, 0x9d, 0xbd, 0xb1, 0xfa, 0x6f, 0xbd, 0xf6, 0x92, 0x37, 0xbd,
  0xd4, 0xe6, 0x96, 0x3d, 0x9c, 0x03, 0x1f, 0x3e, 0xca, 0xdf, 0x08, 0x3e,
  0x5e, 0x24, 0xf5, 0x3d, 0x5e, 0xc4, 0xe9, 0x3d, 0xd0, 0xce, 0xf3, 0x3d,
  0xae, 0xb5, 0x11, 0x3e, 0x48, 0xa6, 0x5d, 0x3e, 0x6a, 0x54, 0x1b, 0xbe,
  0xde, 0x64, 0xbc, 0xbd, 0xff, 0xff, 0xe6, 0xbd, 0x82, 0x20, 0x27, 0xbe,
  0xd2, 0xc3, 0x91, 0x3d, 0x1a, 0x0b, 0x21, 0xbc, 0x94, 0x01, 0x20, 0xbd,
  0xf6, 0x3c, 0xc9, 0xbd, 0x12, 0x7a, 0x0a, 0xbe, 0x49, 0x00, 0x1f, 0xbe,
  0xb8, 0xbf, 0x2d, 0xbd, 0x27, 0x22, 0x95, 0xbc, 0x9d, 0xda, 0x01, 0xbe,
  0x77, 0xd9, 0x86, 0x3d, 0xbf, 0xe8, 0xc5, 0x3c, 0xe0, 0x7d, 0x24, 0xbd,
  0xec, 0xb1, 0x69, 0x3d, 0x9b, 0x69, 0xf8, 0x3d, 0xc8, 0xf3, 0x24, 0xbe,
  0x51, 0xa2, 0x4d, 0x3d, 0x9a, 0xa4, 0x12, 0x3e, 0xcf, 0x9e, 0x03, 0x3d,
  0x94, 0x0b, 0x75, 0x3e, 0x29, 0x64, 0x06, 0xbe, 0xc9, 0x5b, 0xc7, 0xbd,
  0xe5, 0x09, 0x95, 0x3c, 0x7c, 0xdc, 0xa0, 0xbd, 0xf3, 0x9b, 0x29, 0xbe,
  0xcf, 0x61, 0x5f, 0x3e, 0x72, 0x05, 0x56, 0x3e, 0x3e, 0xd2, 0x19, 0x3d,
  0xa5, 0xd7, 0x6f, 0x3b, 0xa4, 0x39, 0x1f, 0x3e, 0x1d, 0x25, 0xd3, 0x3d,
  0x5c, 0x8c, 0xb0, 0xbc, 0x84, 0xec, 0x77, 0xbd, 0x61, 0x3f, 0x05, 0x3c,
  0x3c, 0xec, 0x39, 0x3d, 0x61, 0x5a, 0x7d, 0xbd, 0x7c, 0x77, 0x32, 0xbe,
  0x63, 0xea, 0x83, 0xbc, 0xbb, 0xc2, 0x03, 0x3e, 0x3a, 0xa3, 0x1e, 0x3e,
  0xa5, 0x26, 0x5b, 0x3e, 0xf8, 0x91, 0xd6, 0xbd, 0xc5, 0xb8, 0x79, 0xbd,
  0x49, 0x2e, 0x25, 0x3b, 0xc2, 0xc5, 0xe2, 0xbd, 0x14, 0xbb, 0xf1, 0xbd,
  0x6b, 0x3d, 0x3f, 0xbe, 0xd0, 0x21, 0xf4, 0x3d, 0x14, 0x84, 0x9c, 0x3d,
  0x1b, 0xa9, 0xea, 0x3d, 0x4f, 0xfb, 0x4f, 0xbe, 0xa7, 0x0c, 0x8a, 0x3d,
  0x5f, 0xa0, 0x21, 0xbd, 0x38, 0x50, 0xab, 0xbc, 0x02, 0xe8, 0x6c, 0xbd,
  0x69, 0xe0, 0xb8, 0xbd, 0xec, 0x7e, 0x45, 0x3d, 0xb6, 0x58, 0x16, 0xbe,
  0x4a, 0x06, 0x7f, 0x3d, 0xdf, 0x0d, 0x17, 0x3d, 0x53, 0x9f, 0xfc, 0x3c,
  0xa4, 0x31, 0x0b, 0xbd, 0xa4, 0xda, 0x96, 0xbc, 0x72, 0xb9, 0xf0, 0x3d,
  0x7b, 0x15, 0x2d, 0x3e, 0x3d, 0xae, 0x42, 0xbe, 0x1e, 0x8f, 0x74, 0x3d,
  0x22, 0xc9, 0x2e, 0xbe, 0xaf, 0xbc, 0xd3, 0x3d, 0x4e, 0x9d, 0x3d, 0x3e,
  0x59, 0xa1, 0x8b, 0x3d, 0x73, 0xeb, 0x66, 0x3e, 0x7c, 0xa2, 0x07, 0x3e,
  0x84, 0x41, 0x81, 0xbd, 0x3f, 0xcc, 0x74, 0xbe, 0xb1, 0x1b, 0x7e, 0x3d,
  0x15, 0x06, 0x00, 0x3e, 0x62, 0x78, 0x5d, 0x3d, 0x19, 0x3b, 0x80, 0xbe,
  0xb4, 0x2c, 0x22, 0x3e, 0x27, 0x28, 0xb6, 0xbd, 0xe1, 0x0f, 0x33, 0xbe,
  0xf0, 0xf5, 0x92, 0x3d, 0x37, 0x24, 0xe5, 0x3b, 0xf8, 0xa6, 0xa1, 0xbd,
  0x48, 0x01, 0x31, 0xbe, 0x6d, 0xe6, 0x0f, 0xbe, 0x2c, 0x24, 0xe7, 0xbc,
  0xf0, 0x0c, 0x0a, 0xbe, 0x9c, 0xe1, 0xa9, 0x38, 0x73, 0xce, 0xaf, 0x3d,
  0x63, 0x0f, 0x13, 0xbe, 0x7d, 0xbe, 0x19, 0x3e, 0x60, 0x3d, 0x5a, 0x3e,
  0xe0, 0x8d, 0x77, 0x3d, 0x86, 0xa5, 0xcb, 0xbd, 0x92, 0xe4, 0x45, 0x3d,
  0xad, 0x98, 0xc0, 0xbd, 0xe7, 0xad, 0xaa, 0xbc, 0xd5, 0xab, 0x6d, 0x3d,
  0xf1, 0xf3, 0x7b, 0xbe, 0x79, 0x1d, 0xf3, 0xbc, 0x37, 0xc3, 0x08, 0xbe,
  0xb3, 0x39, 0xac, 0x3b, 0x5c, 0xe9, 0x2e, 0x3d, 0xb5, 0xb3, 0xb6, 0xbc,
  0xfe, 0x0c, 0x59, 0x3e, 0xaf, 0x8b, 0x49, 0xbd, 0xa4, 0xf4, 0x2c, 0x3e,
  0xd9, 0x08, 0x20, 0x3e, 0xc7, 0xb6, 0xc0, 0x3d, 0x07, 0x08, 0x61, 0x3d,
  0x16, 0x6c, 0x5a, 0x39, 0xbe, 0x3e, 0xec, 0x3d, 0x7c, 0x0a, 0x0b, 0xbc,
  0x47, 0x69, 0x39, 0xbd, 0xb9, 0xe6, 0x32, 0xbe, 0x61, 0xa4, 0x7f, 0xbe,
  0x73, 0x25, 0x17, 0xbd, 0x85, 0xcd, 0xfd, 0xbd, 0x4f, 0xaa, 0x1d, 0x3e,
  0x66, 0xd6, 0xd3, 0x3b, 0xc4, 0xbd, 0x35, 0xbd, 0xe2, 0x0e, 0x43, 0xbd,
  0x15, 0x9c, 0x23, 0x3e, 0x99, 0xc4, 0x62, 0x3d, 0x2a, 0xf2, 0xae, 0x3d,
  0xb9, 0xcb, 0x76, 0x3d, 0x5f, 0xea, 0x02, 0x3a, 0x3e, 0xa9, 0x27, 0xbd,
  0x8a, 0xe0, 0x7a, 0xbd, 0xf8, 0xd5, 0xf6, 0x3d, 0xb8, 0x2a, 0x1f, 0x3d,
  0x30, 0xfa, 0x18, 0x3e, 0x67, 0x85, 0xf2, 0x3c, 0x7d, 0x7b, 0x8e, 0x3d,
  0xe6, 0xe3, 0x17, 0x3d, 0x56, 0xb5, 0x9d, 0xbd, 0x86, 0xb6, 0x82, 0x3e,
  0x28, 0x2c, 0x98, 0xbc, 0x60, 0x87, 0xbd, 0xbd, 0x25, 0x8f, 0x18, 0x3d,
  0x6a, 0x4c, 0xb4, 0xb9, 0x7b, 0x3e, 0x6c, 0xbc, 0x24, 0xb3, 0x11, 0x3e,
  0xb2, 0x80, 0x19, 0x3e, 0x14, 0x40, 0x9c, 0xbd, 0x97, 0x9d, 0x2f, 0x3d,
  0xfb, 0x5b, 0x1e, 0xbe, 0x2b, 0xa4, 0xc7, 0xbd, 0x40, 0x8e, 0x5b, 0x3d,
  0x35, 0x7d, 0xe6, 0x3d, 0x95, 0x59, 0x6c, 0x3e, 0x85, 0x9f, 0x84, 0x3e,
  0x18, 0x26, 0xb8, 0x3d, 0x36, 0x67, 0xb0, 0xbd, 0x44, 0x72, 0x03, 0x3b,
  0x3e, 0x6a, 0x8a, 0x3d, 0xec, 0xbf, 0xa3, 0xbd, 0xa3, 0x49, 0x4f, 0x3c,
  0x2b, 0x83, 0x02, 0x3c, 0xb4, 0x2b, 0x69, 0xbe, 0xda, 0xbd, 0x6f, 0xbc,
  0x8c, 0x39, 0xd5, 0x3b, 0x09, 0x93, 0x98, 0x3d, 0xa9, 0x7e, 0x43, 0x3c,
  0x07, 0xd3, 0xc6, 0x3d, 0xd1, 0xac, 0x60, 0x3e, 0x03, 0x3f, 0x0b, 0xbd,
  0x39, 0x8e, 0x1b, 0x3d, 0x2d, 0xb5, 0x3e, 0xbd, 0xfe, 0x9f, 0xea, 0xbd,
  0x74, 0xe2, 0x91, 0x3c, 0x5b, 0xc4, 0x47, 0xbe, 0x1d, 0x63, 0xcb, 0xbd,
  0xf5, 0xe9, 0x55, 0x3e, 0x11, 0xc1, 0x52, 0xbd, 0xc8, 0x42, 0x33, 0x3e,
  0x35, 0x73, 0x9c, 0xbb, 0x2b, 0xb0, 0x07, 0xbe, 0x5b, 0x62, 0x24, 0xbd,
  0x1d, 0x1c, 0x39, 0x3d, 0x31, 0x39, 0x1a, 0xbc, 0x3c, 0x8f, 0xeb, 0x3c,
  0xe9, 0xb3, 0x3c, 0xbe, 0x59, 0x89, 0x63, 0x3d, 0x3c, 0x6b, 0x4b, 0xbc,
  0x60, 0xca, 0xe0, 0x3d, 0x18, 0x61, 0xf5, 0xbd, 0x47, 0x6b, 0x9f, 0xbc,
  0xd6, 0x77, 0xd0, 0xbd, 0x54, 0x9e, 0x9d, 0xbd, 0xb0, 0x5f, 0x89, 0xbc,
  0x40, 0xab, 0x74, 0xbe, 0x3c, 0x51, 0xb8, 0xbc, 0xca, 0xa2, 0xd4, 0x3c,
  0x54, 0x14, 0x21, 0x3e, 0x94, 0xfc, 0x66, 0xbc, 0xc5, 0x3b, 0xab, 0xbd,
  0x9f, 0x93, 0x00, 0xbe, 0x88, 0x1f, 0xd5, 0x3d, 0xed, 0x48, 0x9b, 0x3d,
  0xb2, 0xd6, 0xe2, 0xbd, 0x00, 0xce, 0x22, 0x3e, 0x2f, 0x02, 0x29, 0xbe,
  0xd8, 0x26, 0x85, 0x3e, 0xfe, 0xd2, 0xc6, 0xbd, 0xeb, 0x3c, 0xbc, 0x3d,
  0xda, 0xfa, 0x48, 0xbc, 0xf7, 0xf6, 0x87, 0xbd, 0x1c, 0x9c, 0xe0, 0x3d,
  0xe9, 0x54, 0x4d, 0x3d, 0x12, 0x3a, 0xf4, 0xbd, 0x32, 0x9a, 0xb8, 0xbd,
  0x3c, 0x04, 0xcb, 0x3d, 0xdc, 0x16, 0x06, 0xbc, 0xe0, 0x39, 0x96, 0x3d,
  0xda, 0xaa, 0x18, 0xbe, 0xbf, 0x2c, 0xa0, 0xbd, 0x72, 0x5e, 0x52, 0x3d,
  0xd2, 0xa9, 0x0c, 0x3e, 0xa6, 0xa6, 0x02, 0x3e, 0xad, 0xb1, 0xbf, 0xbd,
  0x42, 0x37, 0xfe, 0xbd, 0xab, 0x72, 0x06, 0xba, 0x86, 0xf1, 0xca, 0xbd,
  0xde, 0x40, 0x31, 0xbe, 0xc1, 0x55, 0xc8, 0x3c, 0x9d, 0x6e, 0x8d, 0xbd,
  0x3a, 0xec, 0x07, 0xbe, 0xb6, 0x4c, 0x0e, 0xbd, 0x76, 0x30, 0xb0, 0xbd,
  0x56, 0x43, 0xd9, 0x3d, 0xb7, 0xd7, 0xd7, 0xbd, 0xea, 0x53, 0x28, 0x3e,
  0x2c, 0x6c, 0xbe, 0x3d, 0x59, 0xf1, 0x85, 0x3e, 0x26, 0x75, 0x83, 0x3d,
  0x99, 0xe3, 0x36, 0x3c, 0xe5, 0x21, 0x3c, 0x3d, 0x8c, 0x09, 0xd2, 0xbc,
  0xce, 0xd6, 0xa6, 0xbc, 0x7c, 0xd6, 0xa0, 0x3d, 0x1d, 0x28, 0x8c, 0xba,
  0x7c, 0x57, 0x0b, 0x3c, 0x30, 0xc7, 0xbb, 0xbd, 0x66, 0xaf, 0x01, 0xbe,
  0xad, 0x28, 0x9f, 0xbd, 0x25, 0x74, 0x80, 0xbe, 0x3b, 0xea, 0xcf, 0xbd,
  0x15, 0xe9, 0x7b, 0xbd, 0xcf, 0xde, 0x48, 0x3d, 0x4d, 0x9b, 0xaf, 0xbd,
  0x59, 0x53, 0xa1, 0xbc, 0xe3, 0x06, 0xb4, 0x3d, 0xc7, 0xb5, 0xe9, 0x3c,
  0x5e, 0x0b, 0x7c, 0x3c, 0x79, 0x5c, 0x1d, 0xbd, 0xc7, 0x00, 0xc4, 0xba,
  0x11, 0xae, 0x44, 0x3e, 0xd8, 0x45, 0x5f, 0x3d, 0xaa, 0x11, 0xf1, 0x3c,
  0x2d, 0xf2, 0x54, 0xbe, 0x97, 0x8a, 0x8a, 0xbd, 0xcd, 0xb0, 0x8d, 0x3d,
  0x00, 0x72, 0x74, 0x3e, 0x80, 0xb9, 0x14, 0x3d, 0x13, 0xaf, 0xcc, 0x3d,
  0x3e, 0xaf, 0x09, 0x3d, 0x22, 0xd5, 0x52, 0x3d, 0x2c, 0x3e, 0x50, 0xbc,
  0xfe, 0xf7, 0xf2, 0xbd, 0x2d, 0x0e, 0x2e, 0x3e, 0xe7, 0x38, 0xb4, 0x3c,
  0x99, 0xef, 0x54, 0xbb, 0xd9, 0x88, 0x03, 0x3e, 0x34, 0xd7, 0x16, 0xbe,
  0x3c, 0xec, 0xa4, 0xbd, 0xc9, 0x32, 0x64, 0xbd, 0xb6, 0x5a, 0x83, 0xbe,
  0xac, 0xc6, 0x08, 0xbc, 0xdd, 0xd2, 0x24, 0xbe, 0x04, 0x33, 0x6c, 0x3e,
  0x61, 0x59, 0xc7, 0x3c, 0x36, 0x3e, 0xb2, 0x3c, 0xde, 0xe0, 0xbc, 0xbd,
  0x57, 0x6a, 0x00, 0x3d, 0x98, 0x35, 0x53, 0xbd, 0xae, 0x3f, 0xc2, 0xbd,
  0xa7, 0x33, 0x15, 0xbd, 0xbc, 0x3b, 0x4b, 0xbe, 0x46, 0xbb, 0xf9, 0xbd,
  0x61, 0x58, 0x9c, 0xbb, 0x72, 0x74, 0x9e, 0x3c, 0x9d, 0xbf, 0x0c, 0x3c,
  0xd6, 0xdd, 0x5f, 0xbc, 0xf9, 0xb7, 0xe9, 0x3c, 0x80, 0x6d, 0xa3, 0xbb,
  0xa2, 0x5c, 0x54, 0xbd, 0xd4, 0xaf, 0x21, 0xbe, 0x59, 0xf0, 0x7a, 0x3e,
  0xe3, 0xe6, 0x39, 0x3d, 0x06, 0x93, 0xed, 0xbd, 0x03, 0x60, 0xee, 0x3c,
  0x59, 0xa1, 0xa2, 0xbd, 0xdf, 0xfd, 0x63, 0xbe, 0x3b, 0xe7, 0xd6, 0x3d,
  0x56, 0xb1, 0xcf, 0x3b, 0x24, 0x1a, 0xc7, 0x3d, 0xf4, 0xde, 0xd9, 0x3d,
  0xac, 0x7b, 0x92, 0x3b, 0x76, 0x42, 0x5c, 0x3c, 0x9f, 0xdf, 0x76, 0x3e,
  0x54, 0x3d, 0xcb, 0xbd, 0xcd, 0x4e, 0x5e, 0x3b, 0xed, 0x8e, 0x82, 0x3e,
  0x2a, 0xe7, 0xd7, 0x3d, 0x72, 0x77, 0x01, 0xbe, 0x5c, 0x41, 0x24, 0x3d,
  0x18, 0xdb, 0x98, 0xbd, 0x5d, 0x36, 0x7c, 0xbe, 0x92, 0x66, 0x14, 0x3e,
  0x96, 0xf0, 0x02, 0x3e, 0xe5, 0xf6, 0xfe, 0xbd, 0x4a, 0x3c, 0xaa, 0x3d,
  0xe8, 0x65, 0xc3, 0xbd, 0x12, 0x20, 0x4b, 0xbd, 0x8f, 0xbf, 0xa3, 0xbc,
  0xbf, 0x73, 0x9f, 0x3d, 0xee, 0x10, 0xdf, 0x3d, 0xda, 0x2d, 0x6a, 0x3c,
  0xf8, 0x16, 0x49, 0x3e, 0x92, 0x3b, 0x22, 0x3e, 0x04, 0x99, 0xdb, 0x3d,
  0x41, 0x1f, 0x2d, 0xbe, 0x2d, 0x38, 0x2f, 0xbe, 0x54, 0xe7, 0x5c, 0xbd,
  0x6a, 0xba, 0x1f, 0xbe, 0xcf, 0x70, 0x28, 0xbe, 0xc5, 0x9e, 0x2f, 0xbe,
  0xd7, 0xe5, 0x21, 0xbe, 0x73, 0xdc, 0x4f, 0x3c, 0xdd, 0xa4, 0x5a, 0x3d,
  0x85, 0x9c, 0x34, 0x3d, 0xe0, 0x52, 0x00, 0x3e, 0xcd, 0x5f, 0x1a, 0xbd,
  0x13, 0x5c, 0x1a, 0x3e, 0x10, 0x27, 0x1f, 0x3c, 0x1d, 0x91, 0xd4, 0x3d,
  0xdb, 0x90, 0x33, 0x3e, 0x51, 0x7d, 0x5c, 0x3d, 0x77, 0x33, 0xf2, 0x3d,
  0x0e, 0x42, 0x97, 0x3d, 0x9c, 0x5d, 0x86, 0xbe, 0xc0, 0x37, 0x21, 0xbe,
  0x47, 0xfe, 0xfc, 0x3d, 0x1e, 0xcd, 0x84, 0xbe, 0xd1, 0x54, 0x12, 0xbe,
  0x01, 0x55, 0x35, 0xbc, 0x39, 0xd7, 0xcb, 0xbd, 0x80, 0x11, 0x07, 0xbd,
  0xfe, 0x6b, 0x10, 0xbe, 0x9e, 0xf1, 0x72, 0x3d, 0xe7, 0xea, 0xda, 0x3b,
  0xcd, 0xb2, 0x23, 0xbd, 0x2c, 0x0b, 0x13, 0xbd, 0xaa, 0x24, 0xe3, 0xbc,
  0x73, 0xd8, 0x50, 0x3d, 0xee, 0x68, 0x44, 0x3e, 0x72, 0x90, 0x07, 0x3e,
  0x3a, 0xea, 0x03, 0x3e, 0x45, 0x84, 0x78, 0x3e, 0xea, 0x51, 0x05, 0x3c,
  0x25, 0xca, 0x81, 0xbe, 0xbd, 0x1e, 0x81, 0x3e, 0xab, 0xf9, 0xbe, 0xbd,
  0xb4, 0x3c, 0x48, 0xbe, 0x5c, 0x51, 0xa5, 0x3d, 0xbc, 0x51, 0x56, 0xbe,
  0x04, 0xbf, 0xe4, 0xbc, 0xd2, 0x19, 0xc5, 0x3d, 0xcb, 0x54, 0x6a, 0xbe,
  0xfb, 0x44, 0x1b, 0xbe, 0x15, 0x8a, 0x30, 0x3e, 0x7d, 0x17, 0xa8, 0x3d,
  0x1c, 0x90, 0x58, 0xbe, 0xd4, 0x84, 0xf6, 0x3c, 0xaf, 0xf6, 0x2c, 0xbe,
  0x28, 0x03, 0x2a, 0x3e, 0x51, 0x94, 0xc9, 0xbd, 0x0c, 0x25, 0x92, 0xbd,
  0x63, 0x92, 0x0d, 0xbd, 0xcc, 0x8d, 0x01, 0xbe, 0x11, 0x26, 0x66, 0x3e,
  0xc2, 0x94, 0xca, 0xbd, 0xc5, 0x4b, 0x9b, 0x3d, 0xae, 0xcf, 0xf8, 0xbd,
  0x2b, 0x8d, 0x04, 0xbe, 0x29, 0xd0, 0x9f, 0x3d, 0xab, 0xd7, 0x0f, 0x3e,
  0xc9, 0x65, 0xd6, 0x3d, 0xae, 0x39, 0x3e, 0x3e, 0x46, 0x0a, 0x45, 0xbc,
  0x8e, 0x0d, 0x5c, 0x3d, 0xf3, 0x61, 0x22, 0xbc, 0x04, 0xd0, 0x31, 0xbe,
  0x2d, 0xa7, 0x20, 0xbe, 0x7b, 0x4e, 0x87, 0xbb, 0x49, 0x2e, 0x57, 0x3d,
  0x2e, 0x42, 0x92, 0x3c, 0x3e, 0x47, 0xff, 0xbc, 0x2d, 0x3f, 0xc9, 0xbd,
  0x99, 0x5d, 0x30, 0x3d, 0x8c, 0xec, 0x9a, 0x3d, 0x84, 0xaf, 0x36, 0x3e,
  0x67, 0x81, 0x67, 0xbd, 0xdf, 0xd6, 0xf5, 0xbc, 0xbb, 0x7d, 0x43, 0xbd,
  0x1a, 0xb1, 0xc7, 0xbd, 0xdf, 0x90, 0x26, 0x3e, 0x4c, 0xf8, 0xc4, 0xbd,
  0x5a, 0xfe, 0x9a, 0x3d, 0x3f, 0x84, 0x2c, 0x3e, 0x50, 0xb4, 0xca, 0xbd,
  0x00, 0x18, 0x09, 0xbe, 0x7d, 0xb3, 0x60, 0x3e, 0xe2, 0x9f, 0x29, 0x3d,
  0x97, 0x4d, 0x02, 0x3d, 0xef, 0xce, 0x8a, 0xbd, 0xa1, 0x23, 0xa0, 0xbd,
  0x6c, 0x10, 0x70, 0x3d, 0x1b, 0x43, 0xe1, 0xbd, 0x5b, 0xb2, 0x88, 0xbc,
  0x72, 0x6f, 0xce, 0x3d, 0xa7, 0x3f, 0x25, 0x3d, 0x8a, 0x00, 0x3b, 0xbc,
  0x3c, 0x5d, 0x20, 0x3e, 0xe1, 0x3d, 0x6e, 0x3d, 0xd8, 0xe0, 0x86, 0x3a,
  0x12, 0x8e, 0x53, 0x3d, 0x67, 0xf0, 0x41, 0x3e, 0xde, 0x09, 0xa6, 0x3a,
  0x3b, 0x2d, 0xdf, 0x3d, 0xcd, 0x79, 0x57, 0x3c, 0x47, 0xf0, 0x5f, 0x3d,
  0xfb, 0xf8, 0xff, 0x3c, 0x7a, 0x09, 0x63, 0xbd, 0x24, 0xed, 0x0f, 0xbe,
  0xb5, 0x37, 0x00, 0xbe, 0x11, 0x6a, 0xf6, 0x3c, 0x00, 0xc7, 0x8c, 0xbd,
  0xb1, 0x10, 0x9c, 0xbd, 0x8b, 0x71, 0xea, 0x3c, 0x95, 0xaf, 0xbb, 0x3d,
  0x22, 0x11, 0x25, 0xbe, 0xfc, 0x35, 0x10, 0xbc, 0xbb, 0x06, 0x51, 0x3d,
  0x79, 0xf4, 0xfa, 0x3c, 0x46, 0xe8, 0x91, 0xbd, 0x66, 0x8b, 0x44, 0x3e,
  0x2e, 0x87, 0x7a, 0xbc, 0x64, 0x46, 0xaa, 0x3c, 0xa9, 0x0d, 0x0d, 0xbe,
  0x7e, 0x7c, 0x53, 0xbe, 0xaf, 0x4b, 0xa2, 0xbd, 0x84, 0x9c, 0xe1, 0x3d,
  0x2e, 0x08, 0x85, 0x3d, 0x06, 0x92, 0x1f, 0x3e, 0x0a, 0xe3, 0x0b, 0xbd,
  0x12, 0x3f, 0xdd, 0x3c, 0xec, 0xaa, 0x11, 0xbe, 0x14, 0xb4, 0xea, 0xbc,
  0xf1, 0x9f, 0x09, 0xbd, 0x2b, 0x2c, 0x60, 0x3d, 0x6f, 0x28, 0xe0, 0x3d,
  0x31, 0xf1, 0x00, 0x3d, 0x0d, 0x92, 0x65, 0x3d, 0x14, 0xb1, 0xdb, 0x3b,
  0x22, 0xf6, 0xb2, 0x3b, 0x33, 0x0b, 0x77, 0x3c, 0x56, 0x04, 0x09, 0x3e,
  0xed, 0xad, 0x25, 0xbc, 0x4e, 0x54, 0xc6, 0xbd, 0xab, 0xfb, 0x18, 0xbd,
  0xf6, 0xfb, 0x72, 0x3e, 0x5b, 0x3b, 0xf2, 0xbd, 0x19, 0x44, 0xe3, 0xbd,
  0x66, 0x07, 0xd4, 0xbd, 0x24, 0xeb, 0x24, 0xbe, 0xa7, 0xec, 0x98, 0x3d,
  0x64, 0x02, 0xc0, 0x39, 0x1c, 0x28, 0x13, 0xbb, 0x59, 0xdf, 0x8a, 0x3d,
  0x70, 0xb8, 0xbc, 0x3c, 0xee, 0x65, 0x32, 0xbe, 0x96, 0x33, 0x65, 0xbd,
  0x3a, 0xec, 0x19, 0xbd, 0xe0, 0x6c, 0x70, 0x3d, 0xf9, 0xfb, 0xc6, 0xba,
  0x73, 0xd5, 0xfd, 0xbd, 0x7e, 0x0d, 0x98, 0xbd, 0x01, 0x5f, 0x61, 0xbd,
  0x2f, 0x2d, 0x3b, 0x3d, 0xef, 0xa5, 0x96, 0xbc, 0xd2, 0xae, 0x2c, 0x3e,
  0x3b, 0x5b, 0x5c, 0xbd, 0xf4, 0xec, 0x5e, 0xbe, 0xe3, 0xf0, 0x06, 0x3e,
  0x47, 0x50, 0x3c, 0xbe, 0xc5, 0xa1, 0x40, 0xbe, 0x5e, 0x9a, 0x23, 0x3e,
  0xed, 0xda, 0xec, 0x3d, 0x0f, 0xf6, 0x1b, 0xbe, 0x57, 0xfe, 0x18, 0xbe,
  0x78, 0xdd, 0xf0, 0xbd, 0x28, 0x17, 0x2c, 0xbd, 0x1c, 0xae, 0x69, 0xbd,
  0xe9, 0xf3, 0x00, 0xbc, 0x32, 0x4b, 0xfb, 0xbd, 0x45, 0x9f, 0x08, 0x3e,
  0x89, 0x90, 0x06, 0xbe, 0x10, 0x48, 0x47, 0x3e, 0xd1, 0xe5, 0xdb, 0x3a,
  0x0f, 0x62, 0x09, 0x3e, 0x53, 0x1f, 0x12, 0x3e, 0x60, 0xa1, 0x10, 0x3e,
  0x5a, 0x9c, 0xaa, 0xbd, 0x64, 0x2d, 0x95, 0xbc, 0xa0, 0xc1, 0x93, 0x3b,
  0x10, 0x76, 0xd5, 0xbd, 0x5d, 0x66, 0x5a, 0xbe, 0x90, 0xde, 0x27, 0x3e,
  0x88, 0x11, 0xc1, 0xbd, 0x81, 0xbc, 0xab, 0xb8, 0xa5, 0xce, 0x9f, 0xbd,
  0xa0, 0x86, 0x86, 0xbd, 0x7b, 0x26, 0x5b, 0xbe, 0x21, 0x83, 0xd6, 0x3c,
  0xb9, 0xd5, 0x54, 0xbc, 0x4f, 0xa2, 0x4d, 0xbc, 0x2f, 0x0a, 0x05, 0x3d,
  0x9a, 0x76, 0x54, 0xbe, 0x34, 0xdb, 0x40, 0x3e, 0x99, 0x0c, 0x7c, 0x3d,
  0x2b, 0x30, 0x08, 0x3e, 0x71, 0x38, 0xf6, 0xbd, 0x0b, 0xf1, 0x0b, 0xbe,
  0x06, 0x6d, 0x4b, 0x3e, 0xa2, 0x3d, 0x82, 0x3d, 0xc6, 0xd4, 0xe4, 0xbd,
  0x9e, 0x88, 0x56, 0x3d, 0xb9, 0x3c, 0xee, 0xbd, 0x27, 0x0c, 0xcf, 0x3d,
  0x2c, 0xa8, 0x6f, 0x3d, 0xf9, 0x78, 0x1b, 0xbe, 0x71, 0xf5, 0x53, 0xbd,
  0x6f, 0x4b, 0x53, 0x3d, 0x9c, 0xbd, 0xce, 0xbd, 0x00, 0x90, 0x78, 0xbd,
  0x0f, 0x48, 0xbd, 0x3d, 0x86, 0x76, 0xeb, 0x3d, 0xad, 0x76, 0x37, 0x3e,
  0x25, 0x7d, 0xe6, 0x3d, 0x37, 0x01, 0xa9, 0xbc, 0x11, 0x84, 0xe9, 0xbc,
  0x3f, 0x46, 0x0f, 0x3d, 0x77, 0xae, 0x5a, 0x3b, 0xa2, 0xb5, 0x70, 0x3e,
  0xef, 0x03, 0x3b, 0xbe, 0x60, 0xb8, 0xba, 0xbd, 0x7d, 0x3d, 0x0f, 0xbe,
  0x73, 0x05, 0x09, 0x3e, 0x7b, 0xf8, 0x00, 0xbe, 0x7f, 0x62, 0x0d, 0x3e,
  0x5c, 0x4b, 0x3b, 0x3d, 0x33, 0xc6, 0x5a, 0x3c, 0x45, 0x7f, 0x39, 0xbd,
  0x21, 0xc9, 0x12, 0x3e, 0xe1, 0xb6, 0xf8, 0x3d, 0x45, 0x41, 0x6c, 0xbd,
  0xfc, 0x20, 0xc2, 0xbd, 0x18, 0x71, 0x1f, 0xbe, 0x0d, 0xbc, 0xd4, 0x3c,
  0x14, 0x00, 0xde, 0x3d, 0xf2, 0xc1, 0xdc, 0x3d, 0xaa, 0x7e, 0x48, 0x3e,
  0x6c, 0x47, 0xe0, 0x3d, 0x35, 0x52, 0x0c, 0xbe, 0xcf, 0xb0, 0x84, 0x3c,
  0xb7, 0x4c, 0xab, 0x3c, 0xe4, 0x02, 0x25, 0xbc, 0x7d, 0xda, 0xea, 0x3d,
  0x6e, 0xc2, 0x76, 0x3e, 0xc1, 0x33, 0x07, 0x3e, 0xca, 0xf8, 0xd6, 0x3c,
  0xad, 0xf9, 0x63, 0x3e, 0xd9, 0xac, 0x5b, 0xbe, 0xd0, 0xb6, 0x1e, 0x3e,
  0xaf, 0x86, 0x02, 0x3e, 0x45, 0xa5, 0x10, 0xbd, 0xbe, 0x56, 0xa1, 0xbb,
  0xbd, 0xbf, 0x82, 0xbc, 0x74, 0x99, 0xee, 0xbc, 0xa0, 0x36, 0x6a, 0x3b,
  0x6b, 0x28, 0xcc, 0x3b, 0x02, 0x6d, 0xe7, 0x3d, 0xff, 0x81, 0x12, 0xbd,
  0xe0, 0x78, 0xdb, 0x3c, 0x0a, 0x86, 0x67, 0x3e, 0x1b, 0x98, 0xed, 0x3d,
  0x44, 0x6b, 0x09, 0x3e, 0x53, 0xe2, 0x6d, 0xbd, 0xf9, 0x32, 0xd0, 0xbd,
  0xb7, 0x66, 0x83, 0xbc, 0xd2, 0xee, 0xc5, 0xbd, 0xff, 0xc8, 0x46, 0x3d,
  0xd8, 0xc0, 0x80, 0xbd, 0x6c, 0xb4, 0x11, 0x3d, 0x64, 0xd3, 0x16, 0x3e,
  0xaa, 0x41, 0x94, 0x3c, 0xa4, 0x02, 0x46, 0x3d, 0x47, 0xff, 0x11, 0xbe,
  0x56, 0xb5, 0xb2, 0xbc, 0x06, 0x12, 0x8f, 0x3d, 0x8c, 0xca, 0xe5, 0x3d,
  0x01, 0xbb, 0x79, 0xbe, 0xf6, 0x30, 0x09, 0x3e, 0xba, 0xda, 0xde, 0x3c,
  0x95, 0x48, 0x1d, 0x3e, 0x8a, 0xbd, 0xa2, 0xbd, 0x87, 0xf0, 0xa1, 0xbc,
  0xaa, 0xc9, 0x14, 0x3d, 0x34, 0x4a, 0x0d, 0x3e, 0x3b, 0x19, 0xf6, 0xbd,
  0x1d, 0x91, 0x83, 0xbd, 0x43, 0x79, 0x8e, 0x3d, 0x7b, 0xee, 0x1a, 0xbe,
  0x3b, 0xd6, 0xcc, 0x3d, 0x38, 0xe1, 0xc0, 0x3d, 0xf7, 0x64, 0x17, 0xbe,
  0x79, 0x42, 0x4c, 0xbd, 0xba, 0xd2, 0xb7, 0xbd, 0x5e, 0xfa, 0xed, 0x3a,
  0x1a, 0x1d, 0xa0, 0xbd, 0xeb, 0xa9, 0x65, 0xbe, 0xd6, 0xee, 0x84, 0x3e,
  0xeb, 0xe3, 0x58, 0xbe, 0x6a, 0x69, 0x29, 0xbc, 0x0c, 0x95, 0x2a, 0x3d,
  0x7d, 0x35, 0x98, 0xbd, 0x34, 0x57, 0x86, 0xbd, 0x8a, 0x5f, 0x07, 0xbe,
  0x0e, 0x2f, 0x42, 0xbe, 0x45, 0x45, 0x3b, 0xbe, 0xc5, 0x1f, 0x6d, 0xbd,
  0xd8, 0x27, 0xe5, 0x3c, 0x9d, 0xff, 0x46, 0xbd, 0x65, 0xd8, 0x39, 0x3e,
  0xb6, 0x69, 0xe4, 0xbd, 0x0c, 0xd3, 0xa8, 0xbd, 0x41, 0xcc, 0x2f, 0x3d,
  0xd0, 0xcc, 0x49, 0x3c, 0xb5, 0x14, 0x4d, 0xbd, 0x87, 0xb6, 0x9a, 0xbc,
  0x9a, 0xb0, 0xa6, 0xbd, 0x9a, 0xdf, 0xbe, 0x3d, 0xb2, 0x5a, 0x0a, 0x3e,
  0x17, 0x4e, 0xa3, 0xba, 0x59, 0x35, 0x9a, 0xbd, 0xaf, 0x48, 0xab, 0xbc,
  0x5c, 0x3c, 0x9f, 0xbd, 0xc4, 0x4f, 0x26, 0x3e, 0x43, 0x8e, 0xfc, 0xbd,
  0xb7, 0x4c, 0xe2, 0xbc, 0x81, 0x92, 0x8a, 0x3c, 0x07, 0xfa, 0x50, 0xbe,
  0x54, 0xe7, 0xb7, 0x3d, 0xf7, 0x39, 0x30, 0x3d, 0xc9, 0xfc, 0x3e, 0x3e,
  0x66, 0x27, 0x99, 0xbd, 0xc6, 0xce, 0x6f, 0x3e, 0x63, 0x70, 0x06, 0x3e,
  0xac, 0x0f, 0x2d, 0x3c, 0xe5, 0xcf, 0x10, 0x3e, 0x2e, 0xf2, 0x2b, 0x3c,
  0x55, 0xe1, 0xa4, 0xbd, 0xf3, 0x95, 0xa5, 0x3d, 0x99, 0x04, 0x0e, 0x3e,
  0x8c, 0xad, 0x0f, 0x3e, 0x53, 0x43, 0x88, 0xbd, 0x49, 0xf7, 0x58, 0xbe,
  0x7f, 0x4c, 0x65, 0x3e, 0xca, 0x65, 0x61, 0xbd, 0xfb, 0x82, 0xb6, 0x3c,
  0x1e, 0x13, 0x9b, 0xbd, 0xd2, 0xbb, 0x2a, 0x3e, 0xa5, 0x4b, 0x83, 0xbd,
  0x7b, 0xca, 0x09, 0x3e, 0x49, 0x89, 0x37, 0x3d, 0xba, 0x32, 0x10, 0x3d,
  0xed, 0x81, 0x6c, 0xbb, 0x4c, 0x92, 0x89, 0x3c, 0x1d, 0x6f, 0x1d, 0x3e,
  0x6d, 0xf0, 0xd3, 0x3c, 0x2f, 0x81, 0x92, 0xbd, 0x02, 0x68, 0x7a, 0x3e,
  0xe9, 0xd4, 0xb5, 0x3c, 0x00, 0x99, 0x34, 0x3e, 0x1b, 0xba, 0x10, 0x3d,
  0x88, 0xee, 0xd3, 0xbd, 0x28, 0xa3, 0x02, 0xbd, 0x42, 0x18, 0x3c, 0x3e,
  0x43, 0x16, 0x44, 0x3e, 0x2c, 0x7f, 0x1b, 0x3d, 0xa7, 0x61, 0x42, 0x3e,
  0xd2, 0xae, 0x23, 0x3e, 0xe2, 0xbf, 0xc5, 0x3c, 0xdb, 0xcf, 0x0b, 0x3e,
  0x03, 0x3f, 0x6c, 0x3d, 0xf9, 0x11, 0x74, 0xbc, 0x1e, 0xb8, 0xcc, 0x3d,
  0x5a, 0x42, 0x06, 0x3e, 0xb2, 0x26, 0x14, 0xbe, 0x39, 0xf8, 0xec, 0xbc,
  0x80, 0xa5, 0xf1, 0x3d, 0x14, 0x7f, 0x96, 0xbd, 0xa5, 0xe0, 0x96, 0xbd,
  0x4a, 0x54, 0x16, 0x3c, 0x76, 0xaf, 0x27, 0x3e, 0xa0, 0x2e, 0x30, 0x3e,
  0x5b, 0x8b, 0x45, 0xbe, 0x8e, 0x02, 0x0d, 0x3e, 0xc6, 0x62, 0x16, 0xba,
  0xd5, 0xbd, 0xf0, 0x3d, 0x95, 0x31, 0xcd, 0x3b, 0xe9, 0x1f, 0x57, 0xbe,
  0x57, 0xdd, 0x35, 0x3c, 0x11, 0x03, 0x10, 0x3e, 0x48, 0xde, 0x15, 0xbd,
  0x39, 0xb4, 0xf6, 0xbd, 0xc1, 0x4f, 0x39, 0x3d, 0xb9, 0x68, 0xa6, 0x3d,
  0x69, 0x70, 0x07, 0x3b, 0xb5, 0x9f, 0xcc, 0x3d, 0xd8, 0x38, 0x90, 0xbc,
  0xc8, 0xe7, 0x01, 0x3c, 0xbb, 0x68, 0xef, 0x3d, 0x1c, 0x1f, 0xdb, 0x3c,
  0x6d, 0xb5, 0x51, 0x3d, 0x20, 0xea, 0xef, 0x3d, 0x99, 0xaa, 0xfd, 0xbd,
  0x93, 0xa1, 0xe4, 0x3b, 0xf1, 0x22, 0x2d, 0xbe, 0x40, 0xd6, 0x03, 0xbd,
  0xa9, 0x0f, 0x2d, 0x3e, 0xcd, 0x15, 0x6f, 0x3d, 0xa1, 0xc5, 0xe5, 0xbc,
  0xcc, 0xf5, 0x72, 0xbe, 0xf8, 0x24, 0x64, 0xbd, 0x64, 0xea, 0xee, 0x3d,
  0xfd, 0x7c, 0x7a, 0x3b, 0x6d, 0x0f, 0xf6, 0x3d, 0xf6, 0x09, 0x7c, 0x3d,
  0x8c, 0x63, 0x87, 0x3c, 0x13, 0x19, 0x19, 0xbd, 0xb3, 0x6b, 0x1a, 0x3e,
  0x42, 0xb6, 0xcb, 0x3d, 0x30, 0xb6, 0x69, 0x3d, 0xcd, 0xf0, 0x75, 0x3e,
  0x93, 0x4e, 0x60, 0xbd, 0xc1, 0x6e, 0x95, 0xbd, 0xda, 0x2f, 0x46, 0x3e,
  0xa0, 0xe3, 0x14, 0xbe, 0xa6, 0x4e, 0x5c, 0xbd, 0x43, 0x01, 0x29, 0x3d,
  0xd6, 0x62, 0x80, 0xbe, 0xeb, 0x3a, 0x83, 0xbe, 0xf5, 0x31, 0x86, 0xbe,
  0x97, 0x45, 0x6d, 0xbe, 0x6a, 0x23, 0xed, 0x3d, 0x97, 0x0b, 0x44, 0x3d,
  0x8a, 0xf4, 0x6c, 0x3d, 0x6e, 0x0a, 0x37, 0x3d, 0xc3, 0x8c, 0xbc, 0xbd,
  0x84, 0x3a, 0x95, 0xbd, 0xce, 0xc0, 0xe3, 0x3d, 0x4e, 0xae, 0x8c, 0xbd,
  0x6c, 0xeb, 0xe6, 0xbc, 0x28, 0x06, 0x0f, 0x3c, 0x2a, 0x3d, 0x6e, 0x3c,
  0xbe, 0x74, 0x59, 0x3e, 0x0b, 0x00, 0x27, 0xbd, 0x9f, 0x8d, 0x44, 0xbd,
  0x77, 0x43, 0xe1, 0xbc, 0xe6, 0x48, 0x57, 0x3d, 0x33, 0xd8, 0x86, 0x3d,
  0x37, 0x58, 0x82, 0xbd, 0x72, 0xac, 0x01, 0x3e, 0x34, 0xc0, 0xc4, 0x3c,
  0x9b, 0x48, 0x3e, 0x3e, 0x53, 0xd7, 0xb2, 0x3c, 0x9e, 0x7f, 0x2f, 0xbc,
  0xf7, 0x1a, 0x0c, 0xbb, 0x78, 0x30, 0xee, 0x3d, 0x44, 0x11, 0x29, 0x3e,
  0x7d, 0xa8, 0x03, 0x3e, 0xc6, 0x32, 0x7d, 0x3d, 0x28, 0xe1, 0x04, 0xbe,
  0x1e, 0xa8, 0x86, 0xbd, 0x77, 0xd1, 0xaf, 0x3d, 0x3f, 0x23, 0x31, 0xbb,
  0xb2, 0x46, 0x89, 0x3d, 0x91, 0x93, 0x9f, 0x3c, 0x37, 0x7d, 0xb8, 0xbd,
  0xcb, 0xe1, 0x31, 0x3d, 0xa9, 0x3b, 0x26, 0x3d, 0xfe, 0x61, 0x44, 0xbe,
  0xe8, 0x44, 0x18, 0x3e, 0x13, 0x9e, 0x9a, 0xbd, 0x13, 0x87, 0x26, 0xbe,
  0xd4, 0x31, 0x58, 0x3d, 0x74, 0xfb, 0x88, 0x3d, 0xe1, 0xc8, 0x61, 0xbd,
  0x12, 0xca, 0x03, 0xbe, 0x6b, 0x0d, 0x87, 0x3d, 0xe6, 0x44, 0x60, 0xbe,
  0xa1, 0x9d, 0x0a, 0xbd, 0x51, 0xf3, 0x3f, 0x3e, 0x98, 0x1c, 0x1d, 0xbe,
  0xed, 0xd7, 0x9f, 0xbb, 0xde, 0xa1, 0x5a, 0x3d, 0x80, 0xeb, 0x6c, 0x3c,
  0xa2, 0xda, 0x3b, 0xbd, 0xb2, 0x77, 0xfe, 0x3c, 0x0c, 0x89, 0x93, 0xbd,
  0x21, 0xd7, 0x0f, 0xbe, 0x58, 0x8f, 0xf4, 0xbd, 0x07, 0x9e, 0x95, 0x3d,
  0xd2, 0xea, 0xab, 0x3d, 0x2b, 0xd7, 0x08, 0xbe, 0x95, 0x29, 0xc6, 0x3c,
  0x0d, 0xd1, 0xfb, 0x3c, 0x2b, 0xa1, 0x4f, 0xbe, 0xc8, 0x9c, 0x84, 0x3e,
  0xdb, 0xd4, 0x2d, 0xbe, 0x44, 0x3c, 0x85, 0xbc, 0x50, 0x39, 0xf1, 0xbc,
  0xeb, 0xa2, 0xb4, 0xbd, 0xe4, 0x5e, 0x1f, 0xbe, 0x43, 0x29, 0x60, 0xbe,
  0xc9, 0x98, 0x15, 0x3d, 0x22, 0x33, 0x94, 0xbd, 0x09, 0xc7, 0xb4, 0x3d,
  0x07, 0x5f, 0x8c, 0xbc, 0x19, 0xab, 0x93, 0x3d, 0xfd, 0x1a, 0x3a, 0x3c,
  0x80, 0x48, 0x8c, 0xbd, 0x0a, 0x32, 0x11, 0x3e, 0x0a, 0xed, 0x20, 0x3d,
  0xa1, 0x1e, 0x3a, 0x3e, 0x69, 0x35, 0xb3, 0x3d, 0xa6, 0x6c, 0xee, 0xbd,
  0xfa, 0xbc, 0x59, 0xbe, 0x12, 0x36, 0xad, 0x3c, 0x4a, 0x36, 0xe7, 0xbc,
  0xc3, 0xce, 0x45, 0x3e, 0x34, 0x1c, 0x72, 0x3c, 0x90, 0xa5, 0x07, 0x3c,
  0xee, 0x05, 0x88, 0xbe, 0xc9, 0x5a, 0xe1, 0x3d, 0xc3, 0xf5, 0xaa, 0x3d,
  0xd3, 0x09, 0xea, 0xbd, 0x2c, 0xc8, 0xf5, 0x3c, 0x39, 0x22, 0x8e, 0xbd,
  0x58, 0x41, 0x03, 0xbd, 0x98, 0xc2, 0x2a, 0xbd, 0x67, 0xdd, 0xdc, 0xbd,
  0x33, 0xde, 0xb4, 0x3d, 0x6f, 0xa6, 0xe8, 0x3d, 0xfa, 0x4b, 0x3f, 0x3e,
  0x8f, 0xbe, 0x00, 0xbe, 0x76, 0x43, 0x03, 0x3e, 0xa8, 0xb1, 0x89, 0xba,
  0xa8, 0xc1, 0x09, 0x3e, 0x90, 0x35, 0xf9, 0xbd, 0xf1, 0x63, 0x02, 0x3e,
  0xcd, 0x1f, 0x44, 0xbd, 0x7a, 0x06, 0x1a, 0xbe, 0x1a, 0xe1, 0x97, 0xbd,
  0xa3, 0x1f, 0xb4, 0x3d, 0x82, 0x37, 0x04, 0xbe, 0xa4, 0x98, 0x11, 0x3d,
  0x99, 0x16, 0x24, 0xbc, 0x73, 0x7b, 0x08, 0xbb, 0xd4, 0xce, 0x49, 0x3e,
  0x82, 0x78, 0x73, 0xbc, 0x05, 0x54, 0x21, 0x3e, 0x7f, 0x16, 0x0b, 0xbe,
  0x24, 0x59, 0xca, 0x3d, 0xbb, 0xe1, 0xf1, 0xbd, 0x0e, 0xcb, 0xc6, 0xbd,
  0x2f, 0xb6, 0x85, 0x3e, 0x98, 0x2c, 0xaf, 0xbd, 0x6f, 0x94, 0xf4, 0x3d,
  0x2b, 0xca, 0x7b, 0x3d, 0xda, 0x54, 0xda, 0xbb, 0x47, 0x0e, 0x24, 0xbe,
  0x64, 0x86, 0xca, 0xbd, 0x88, 0xce, 0x88, 0xbe, 0x5a, 0x50, 0xf6, 0xbd,
  0x03, 0xfc, 0xb9, 0xbd, 0x9d, 0xe4, 0x81, 0x3d, 0xe6, 0x33, 0x4b, 0xbe,
  0x94, 0x25, 0xae, 0x3d, 0x13, 0x60, 0x5d, 0xbd, 0xa5, 0xb7, 0x0b, 0x3e,
  0xb9, 0xc4, 0x4c, 0xbe, 0x89, 0x76, 0x42, 0x3c, 0x3d, 0x2f, 0x40, 0xbd,
  0xbc, 0x95, 0x37, 0xbd, 0x38, 0x13, 0x55, 0xbc, 0x29, 0xc5, 0x01, 0x3d,
  0x12, 0xd9, 0x1d, 0x3e, 0x9d, 0x5c, 0x01, 0xbe, 0x56, 0x0e, 0x1f, 0xbe,
  0x2b, 0x05, 0x2b, 0x3e, 0x36, 0x46, 0xe7, 0xbd, 0xfc, 0x7f, 0x07, 0xbe,
  0xec, 0x5c, 0xed, 0x3d, 0x52, 0xa6, 0xef, 0xbd, 0x50, 0x0b, 0x74, 0xbd,
  0x79, 0x87, 0xcf, 0x3b, 0x5f, 0x6f, 0x7b, 0x3e, 0x47, 0xda, 0x85, 0x3e,
  0x15, 0x7f, 0xf6, 0x3d, 0xa0, 0xe6, 0x03, 0x3d, 0xf9, 0x0e, 0x9f, 0xbb,
  0x76, 0x11, 0x59, 0x3d, 0x55, 0xed, 0x04, 0x3c, 0x7a, 0x7c, 0xd7, 0xbd,
  0xfc, 0x3e, 0xf0, 0xbd, 0xa3, 0x15, 0xa9, 0xbd, 0x4e, 0x93, 0x93, 0x3d,
  0x26, 0x38, 0x84, 0xbd, 0x5f, 0x06, 0x6c, 0xbe, 0xf6, 0x78, 0x9d, 0xbc,
  0xef, 0x5e, 0x99, 0x3c, 0x88, 0x2d, 0x64, 0xbc, 0x9f, 0x2d, 0x44, 0x3e,
  0x76, 0x56, 0x16, 0x3e, 0xb3, 0x24, 0x99, 0x3c, 0xc7, 0x7d, 0x5a, 0xbd,
  0x73, 0x5a, 0x58, 0xbd, 0x85, 0x16, 0x17, 0x3d, 0xb6, 0xa6, 0x31, 0x3e,
  0xc1, 0x1c, 0x06, 0x3e, 0xe2, 0x86, 0xda, 0x3d, 0x49, 0x66, 0x00, 0xbe,
  0xe2, 0x74, 0x51, 0x3c, 0xbb, 0x91, 0x77, 0xbc, 0x51, 0xc6, 0x98, 0xbc,
  0x53, 0xec, 0x8f, 0xbd, 0xb2, 0x5a, 0x71, 0xbe, 0xfa, 0xfe, 0xa2, 0x3d,
  0xfb, 0xa0, 0x56, 0x3c, 0x1f, 0x93, 0x79, 0xbd, 0x9f, 0x6f, 0x33, 0x3e,
  0xee, 0x3d, 0xbf, 0xbd, 0x22, 0x05, 0x08, 0x3d, 0x56, 0xa8, 0x9a, 0x3d,
  0xe4, 0x48, 0xe9, 0x3d, 0x48, 0x34, 0x4e, 0xbc, 0x0d, 0xb1, 0xe1, 0xbd,
  0x70, 0xe5, 0x36, 0x3d, 0xd6, 0xfd, 0x04, 0xbd, 0xf7, 0x53, 0x0d, 0x3e,
  0xf6, 0x44, 0xd0, 0xbc, 0x99, 0xb0, 0xa4, 0x3d, 0x38, 0xd2, 0x6f, 0xbe,
  0xa1, 0x8f, 0x3f, 0x3d, 0x06, 0x03, 0x16, 0x3e, 0x4e, 0x8c, 0x2e, 0x3d,
  0x72, 0x0e, 0xdc, 0xbd, 0xb0, 0xb3, 0x32, 0xbe, 0xd3, 0x5d, 0xa9, 0xbc,
  0xf5, 0xb5, 0x53, 0x3c, 0xd6, 0xde, 0xc4, 0xbd, 0xa3, 0xe5, 0x8f, 0xbd,
  0xdf, 0xe1, 0x42, 0xbe, 0xb0, 0x77, 0x04, 0x3e, 0xef, 0x44, 0xf1, 0x3d,
  0x97, 0x1e, 0x40, 0x3e, 0xb5, 0xab, 0x5f, 0xbd, 0xe5, 0xa3, 0x14, 0x3e,
  0xa1, 0xa3, 0x59, 0xbe, 0xdd, 0xcd, 0x6e, 0xbe, 0x97, 0x20, 0x1c, 0xbc,
  0xa7, 0x5a, 0x2a, 0xbe, 0xd7, 0xae, 0x80, 0x3d, 0xb4, 0x7e, 0xe0, 0xbc,
  0xce, 0x93, 0x1e, 0xbd, 0xb4, 0x4e, 0x42, 0x3d, 0xf6, 0x8e, 0x30, 0x3d,
  0xa6, 0xdf, 0x07, 0xbd, 0xc9, 0x42, 0xa0, 0xbd, 0xd7, 0x52, 0xae, 0x3c,
  0xdc, 0x1c, 0x25, 0x3e, 0x71, 0x73, 0x42, 0x3e, 0x87, 0x92, 0x11, 0x3d,
  0xb3, 0xd8, 0x32, 0xbd, 0xbf, 0xcc, 0x64, 0x3d, 0xe6, 0x40, 0xa3, 0xbd,
  0xd8, 0x9e, 0x12, 0xbe, 0xe9, 0xd5, 0xd3, 0x3a, 0xad, 0xfc, 0x1e, 0xbe,
  0x7e, 0xe1, 0x91, 0xbc, 0x24, 0x1b, 0x2d, 0x3e, 0xd3, 0x37, 0xba, 0x3d,
  0x45, 0xcf, 0x54, 0x3e, 0x93, 0x28, 0x0c, 0x3d, 0xef, 0x78, 0x33, 0xbe,
  0xbf, 0xb9, 0x38, 0xbe, 0x7c, 0x58, 0xb0, 0xbd, 0xb5, 0x27, 0x7e, 0xbd,
  0x31, 0xa2, 0xc1, 0x3c, 0x39, 0xde, 0xf3, 0x3c, 0xc9, 0x94, 0xda, 0xbd,
  0x00, 0x8a, 0x2c, 0xbe, 0x46, 0x60, 0x48, 0x3e, 0xa0, 0x55, 0x16, 0xbd,
  0x55, 0x95, 0xfd, 0xbd, 0x28, 0x56, 0xe8, 0x3d, 0xc3, 0xb4, 0xd0, 0xbd,
  0x74, 0x81, 0xb7, 0x3d, 0xe9, 0x3f, 0xb1, 0xbd, 0xe8, 0x83, 0x01, 0x3d,
  0x8c, 0x24, 0x00, 0xbe, 0x08, 0x4f, 0x82, 0xbb, 0x1a, 0x85, 0xc0, 0x3d,
  0x1e, 0x3e, 0x4d, 0xbe, 0x3d, 0x05, 0xa1, 0x3c, 0x85, 0x17, 0x7f, 0xbe,
  0x3c, 0xe2, 0x2c, 0x3e, 0x98, 0x91, 0x10, 0x3e, 0x04, 0x71, 0xe5, 0x3c,
  0xd2, 0x7b, 0x18, 0x3e, 0x8c, 0x21, 0xce, 0xbc, 0x20, 0x81, 0x59, 0x3c,
  0x5a, 0x7c, 0x09, 0xbc, 0xff, 0x9f, 0x12, 0x3d, 0x61, 0x25, 0x65, 0x3c,
  0x02, 0x42, 0x1d, 0xbe, 0x01, 0x72, 0xa0, 0xbd, 0x5d, 0x7c, 0x01, 0x3e,
  0x66, 0x34, 0x4e, 0x3e, 0x74, 0xb7, 0x6f, 0x3d, 0x59, 0x1a, 0xad, 0xbd,
  0x2d, 0xf0, 0xf9, 0xbc, 0xcf, 0x2d, 0x2a, 0x3e, 0xe9, 0x96, 0xda, 0x3d,
  0xe2, 0x7d, 0x49, 0xbd, 0xeb, 0xe0, 0x4b, 0x3e, 0x7b, 0x68, 0x55, 0xbd,
  0xf6, 0x56, 0x59, 0x3e, 0x31, 0xde, 0x18, 0x3e, 0x9b, 0xae, 0xcb, 0xbd,
  0xc2, 0xdc, 0x45, 0x3e, 0xaf, 0x39, 0xdd, 0xbc, 0x41, 0x30, 0x02, 0x3e,
  0x1c, 0xb6, 0x1a, 0x3c, 0x08, 0xcc, 0xc7, 0x3d, 0x20, 0x84, 0x04, 0x3e,
  0x6a, 0x64, 0x56, 0x3e, 0xc8, 0x1f, 0xf6, 0xbd, 0xe4, 0x80, 0x3c, 0x3d,
  0x28, 0x7d, 0xd6, 0x3b, 0xd1, 0xc1, 0x33, 0xbe, 0xb9, 0x68, 0x0f, 0x3e,
  0xa9, 0x24, 0x25, 0xbe, 0xc8, 0xa9, 0xa6, 0x3d, 0x83, 0x84, 0xa8, 0x3d,
  0x4c, 0xce, 0xde, 0xbd, 0x51, 0xcd, 0x67, 0xbe, 0x56, 0xb3, 0x7e, 0xbe,
  0xe6, 0x1c, 0x6b, 0x3d, 0xa0, 0x9a, 0xe8, 0xbc, 0xa1, 0x5e, 0xac, 0xbd,
  0xbe, 0xc7, 0xe1, 0xbd, 0xe9, 0x39, 0xf6, 0x3d, 0x5f, 0x5e, 0x08, 0xbd,
  0x4d, 0x7d, 0x2b, 0x3e, 0xb7, 0xf0, 0xe1, 0xbc, 0x8e, 0xa3, 0xd9, 0x3d,
  0x36, 0xab, 0x32, 0x3b, 0xdc, 0xc5, 0xc9, 0xbc, 0x31, 0x10, 0x00, 0x3e,
  0xe1, 0xd5, 0x5b, 0x3d, 0x05, 0xec, 0x66, 0xbe, 0xad, 0xfe, 0x43, 0x3c,
  0x2d, 0xf6, 0x1e, 0x3d, 0x77, 0x9b, 0x22, 0xbe, 0xfe, 0xb0, 0x44, 0xbc,
  0xd0, 0xbd, 0x9c, 0xbc, 0x8f, 0xb0, 0x64, 0x3b, 0x46, 0x28, 0xa9, 0x3d,
  0xf4, 0xd9, 0x40, 0x3d, 0xac, 0x05, 0x70, 0xbb, 0x64, 0xef, 0x07, 0xbe,
  0x42, 0x90, 0x13, 0x3e, 0xd0, 0xe7, 0x25, 0xbe, 0xb6, 0x76, 0xb7, 0xbc,
  0xec, 0x1a, 0x8b, 0xbd, 0x37, 0x89, 0x3f, 0xbc, 0x19, 0xa8, 0x32, 0x3d,
  0x3b, 0x68, 0x0f, 0x3e, 0x89, 0xa8, 0xca, 0xbd, 0x26, 0x05, 0x75, 0x3d,
  0x94, 0xdf, 0xb8, 0xbd, 0x64, 0x58, 0x8e, 0xbd, 0x0f, 0x52, 0xc2, 0xbd,
  0x24, 0xc8, 0x58, 0x3c, 0x07, 0x8d, 0xda, 0xbd, 0x5c, 0x02, 0x3c, 0xbd,
  0x91, 0x36, 0x03, 0x3e, 0xbf, 0x95, 0x2a, 0xbe, 0x5d, 0xca, 0x94, 0x3d,
  0xc8, 0xad, 0xe6, 0x3c, 0x79, 0xf6, 0x21, 0x3d, 0x3c, 0xfc, 0xbf, 0xbc,
  0xb0, 0x1b, 0xdf, 0xbd, 0xa5, 0x40, 0xd2, 0xbc, 0x51, 0xa6, 0x72, 0x3e,
  0x76, 0xf5, 0x27, 0xbd, 0xe5, 0x9f, 0x3d, 0xbd, 0x0c, 0x74, 0x5d, 0x39,
  0xf3, 0x07, 0x37, 0x3e, 0x91, 0xa3, 0xcb, 0xbd, 0x72, 0xc8, 0x95, 0xbc,
  0xec, 0xa3, 0x9e, 0xbb, 0x46, 0xe6, 0x49, 0x3e, 0x83, 0x72, 0xa1, 0xbd,
  0x9e, 0x83, 0x64, 0xbe, 0x14, 0xc3, 0xa2, 0x3d, 0x75, 0x80, 0x17, 0x3e,
  0xf0, 0x58, 0xe3, 0x3d, 0x8a, 0x7b, 0x4a, 0x3e, 0x89, 0xd9, 0x93, 0x3c,
  0x86, 0x92, 0xe9, 0x3d, 0x69, 0xe5, 0x5f, 0xbe, 0x31, 0x54, 0x3d, 0x3b,
  0x2f, 0xa5, 0xec, 0xbc, 0xf5, 0xbe, 0xa0, 0x3d, 0x6c, 0x85, 0x43, 0x3d,
  0x23, 0xb2, 0xfb, 0x3c, 0xd9, 0xfe, 0xcf, 0xbc, 0xbb, 0xc3, 0x25, 0x3b,
  0x6d, 0x70, 0x0e, 0x3d, 0x35, 0x51, 0x85, 0xbd, 0x75, 0x25, 0x25, 0xbe,
  0xd7, 0xc1, 0xb1, 0x3d, 0x32, 0x07, 0xa4, 0x3c, 0x39, 0x49, 0x1a, 0x3e,
  0x8a, 0x5f, 0x18, 0x3c, 0x2b, 0x21, 0xa0, 0x3b, 0x38, 0x5b, 0xc1, 0xbd,
  0x8b, 0x01, 0xf3, 0x3c, 0x6a, 0x06, 0xcf, 0xbd, 0xd7, 0x91, 0x7a, 0xbd,
  0xb5, 0x8f, 0x1a, 0xbd, 0x98, 0x3a, 0x0e, 0xbe, 0x18, 0x3b, 0xc4, 0xbd,
  0x2b, 0xf6, 0x20, 0x3e, 0x86, 0x43, 0x8f, 0x3d, 0x51, 0xc4, 0x90, 0x3d,
  0xba, 0x9f, 0x6d, 0x3d, 0x2d, 0x52, 0x0d, 0xbe, 0x93, 0x03, 0x60, 0x3c,
  0x0f, 0x16, 0x76, 0x3d, 0xc2, 0x4e, 0xb1, 0xbc, 0xb6, 0x31, 0x66, 0x3d,
  0x80, 0x0d, 0xf6, 0x3d, 0xc9, 0x0a, 0xbd, 0xbc, 0xe4, 0x80, 0xf5, 0xbb,
  0x9e, 0xb0, 0x1f, 0x3b, 0x2c, 0xee, 0x59, 0xbe, 0xa9, 0x9c, 0x2d, 0x3c,
  0xf2, 0xca, 0x5e, 0xbe, 0x3c, 0xf1, 0x7f, 0x3e, 0xc6, 0xef, 0x58, 0x3c,
  0xcc, 0x77, 0xb4, 0xbd, 0x45, 0xdc, 0x55, 0x3d, 0x6b, 0x2e, 0x81, 0x3e,
  0xbd, 0x34, 0x17, 0x3e, 0xbb, 0x74, 0x49, 0x3d, 0xca, 0x31, 0x88, 0x3d,
  0x72, 0xea, 0xd9, 0xbc, 0xae, 0x42, 0x4c, 0xbe, 0x05, 0xbe, 0x37, 0xbe,
  0x7c, 0x9c, 0x91, 0x3d, 0x32, 0x15, 0xfb, 0xbc, 0xbf, 0xc1, 0x09, 0xbe,
  0x6e, 0x5b, 0x92, 0x3c, 0x50, 0x0d, 0x47, 0x3e, 0x5f, 0x8a, 0x24, 0xbd,
  0xb2, 0xf5, 0x80, 0x3d, 0xf1, 0x88, 0x34, 0x3d, 0x60, 0xf9, 0xbb, 0xbd,
  0xbe, 0xa0, 0x92, 0xbd, 0x03, 0x2f, 0x51, 0xbe, 0x7b, 0xf6, 0x09, 0xbd,
  0x9e, 0x29, 0x87, 0xbe, 0x5f, 0xa3, 0x1f, 0x3e, 0x7f, 0xdd, 0x4e, 0xbd,
  0x3e, 0x31, 0x52, 0x3d, 0xdc, 0x2b, 0x41, 0xbd, 0x3d, 0xcd, 0x56, 0xbe,
  0x89, 0x0c, 0x31, 0xbd, 0xd5, 0x5b, 0xc5, 0xbd, 0x76, 0x81, 0xed, 0xbc,
  0x3d, 0x3b, 0x57, 0xbe, 0x11, 0x70, 0x27, 0xbd, 0x7c, 0x5b, 0x7b, 0xbd,
  0x93, 0x0e, 0x88, 0xbe, 0x03, 0x4e, 0x5e, 0x3d, 0xaa, 0x8f, 0x84, 0x3d,
  0xd0, 0xf0, 0x5d, 0xbc, 0xd8, 0xac, 0x4e, 0xba, 0x20, 0xcd, 0xd9, 0x3d,
  0x4b, 0xf7, 0x06, 0x3d, 0xda, 0xf4, 0x69, 0xbd, 0x25, 0xfa, 0x5d, 0x3e,
  0x87, 0xe4, 0x85, 0x3b, 0xfa, 0xc7, 0xc4, 0xbd, 0x70, 0xce, 0x71, 0xbc,
  0xe7, 0xb4, 0x1d, 0xbe, 0x57, 0xac, 0x01, 0xbd, 0xba, 0xec, 0x88, 0x3d,
  0xcd, 0x2d, 0x34, 0x3c, 0x45, 0x02, 0x3a, 0x3e, 0x08, 0x8f, 0x63, 0xbe,
  0x57, 0x95, 0x00, 0x3e, 0x6e, 0xdb, 0x78, 0xbd, 0x6f, 0xd3, 0xf8, 0x3d,
  0x65, 0xc3, 0x95, 0xbd, 0x1f, 0xf8, 0xc4, 0x3c, 0x3e, 0xa4, 0x26, 0xbb,
  0x36, 0x25, 0xf8, 0xbd, 0x64, 0x58, 0x73, 0xbe, 0x5e, 0x50, 0x6a, 0xbd,
  0x24, 0x05, 0x36, 0xbe, 0xb8, 0xd7, 0x0b, 0x3e, 0x5b, 0x97, 0xaa, 0xbd,
  0xa9, 0x6f, 0x21, 0x3d, 0xd5, 0xe7, 0x82, 0x3d, 0x58, 0x03, 0x26, 0x3d,
  0x53, 0x3e, 0x0d, 0xbc, 0x81, 0x24, 0xba, 0x3d, 0x46, 0xb8, 0xe1, 0x3c,
  0x67, 0x08, 0xc6, 0x3b, 0x53, 0xe4, 0x07, 0xbe, 0x7d, 0x0a, 0xb2, 0xbc,
  0x98, 0x1b, 0xa0, 0x3d, 0x36, 0x39, 0x9e, 0xbc, 0x6a, 0x34, 0xe3, 0xbd,
  0x78, 0xfd, 0xd9, 0x3d, 0x58, 0x70, 0x3e, 0xbe, 0xe0, 0x11, 0xa4, 0xbd,
  0xa7, 0xea, 0x03, 0x3e, 0x1b, 0x9d, 0xe9, 0xbd, 0x27, 0x6b, 0x1d, 0x3e,
  0xca, 0xac, 0x47, 0xbe, 0xff, 0x91, 0x00, 0xbe, 0x1c, 0x9b, 0xce, 0x3d,
  0xc3, 0xbb, 0x9e, 0x3d, 0x0a, 0x68, 0x68, 0xbe, 0xc0, 0x53, 0x87, 0xbc,
  0x55, 0x35, 0x96, 0xbd, 0x5e, 0xbe, 0x87, 0xbc, 0x35, 0x3f, 0x3f, 0xbd,
  0xa7, 0x7c, 0x29, 0x3d, 0xf1, 0x15, 0x55, 0xbd, 0x82, 0x64, 0xed, 0xbd,
  0xe0, 0x4f, 0x50, 0x3c, 0x8e, 0x05, 0x04, 0x3e, 0x54, 0xa9, 0x8e, 0x3b,
  0xa7, 0xaa, 0xeb, 0x3d, 0x3e, 0xa0, 0x3b, 0x3d, 0x09, 0xe6, 0xbe, 0xbd,
  0xa5, 0x38, 0x5d, 0xbd, 0xec, 0x04, 0x5b, 0xbd, 0xfc, 0x34, 0x30, 0x3d,
  0x6c, 0x7c, 0xf5, 0x3d, 0xdd, 0x26, 0x03, 0x3e, 0xbb, 0xc3, 0x79, 0x3d,
  0x22, 0x83, 0x1a, 0xbc, 0x28, 0x16, 0x83, 0xbb, 0x93, 0x77, 0x18, 0x3e,
  0xf4, 0xdd, 0xf3, 0x3c, 0x2e, 0xa7, 0x3c, 0xbe, 0xd3, 0x48, 0xe8, 0xbc,
  0xd9, 0x19, 0x2a, 0x3d, 0x83, 0x77, 0x06, 0x3c, 0x1b, 0x69, 0xc0, 0xbd,
  0xd6, 0x1e, 0x3e, 0xbd, 0x94, 0x33, 0xb4, 0x3d, 0x22, 0xe6, 0x99, 0x3d,
  0x6f, 0xbc, 0x00, 0x3e, 0x63, 0x87, 0x81, 0xbe, 0x8b, 0x56, 0xdf, 0xbc,
  0x31, 0xe6, 0x0d, 0x3d, 0xfc, 0x7b, 0xa0, 0xbd, 0xbb, 0x27, 0xf2, 0x3c,
  0x33, 0x2d, 0x53, 0xbe, 0xe0, 0x50, 0x84, 0x3e, 0x48, 0xb6, 0x13, 0x3d,
  0xf4, 0x93, 0xa0, 0x3b, 0x0b, 0x03, 0x22, 0x3e, 0x85, 0xce, 0x29, 0xbd,
  0x21, 0x76, 0x46, 0xbd, 0xe2, 0xbc, 0x2e, 0xbe, 0x3e, 0x04, 0x07, 0xbd,
  0xd5, 0x6f, 0xf2, 0x3d, 0x01, 0x9c, 0x89, 0x3d, 0x00, 0x7c, 0x67, 0xbd,
  0x66, 0xb8, 0x85, 0xbd, 0x88, 0x8d, 0x78, 0x3d, 0xb5, 0xfe, 0x01, 0x3e,
  0x58, 0xfa, 0xfb, 0x3d, 0xb6, 0x86, 0x9f, 0x3c, 0xaa, 0x6d, 0x01, 0xbe,
  0xe7, 0x34, 0x6b, 0x3c, 0xcd, 0xdf, 0x2c, 0x3d, 0x76, 0x1f, 0x31, 0x3d,
  0x35, 0x34, 0x12, 0x3c, 0x10, 0xeb, 0x07, 0xbd, 0x12, 0x97, 0x81, 0x3e,
  0x61, 0xdf, 0xf8, 0x3c, 0xa3, 0xeb, 0x45, 0xbe, 0x7f, 0x02, 0xbb, 0x3a,
  0x13, 0x70, 0x36, 0x3e, 0xc7, 0xb9, 0x51, 0xbe, 0x72, 0x3c, 0x9f, 0xbd,
  0x6a, 0x6b, 0x10, 0x3d, 0x1f, 0xa9, 0xa5, 0xbd, 0x40, 0x36, 0xcb, 0x3d,
  0x83, 0xfc, 0xb4, 0x3b, 0xdc, 0x63, 0x00, 0x3e, 0x08, 0xc4, 0x4b, 0x3d,
  0xd1, 0x59, 0x14, 0xbd, 0xa1, 0x35, 0x15, 0xbd, 0x50, 0x12, 0xf0, 0x3d,
  0x78, 0xda, 0xa5, 0x3c, 0x89, 0xec, 0x6a, 0xbe, 0x79, 0x62, 0x89, 0xbd,
  0xfc, 0x7f, 0x2d, 0xbe, 0xb0, 0x31, 0x36, 0x3d, 0x18, 0xaa, 0x08, 0x3d,
  0xb1, 0x39, 0x81, 0x3c, 0xb8, 0xbb, 0x94, 0x3d, 0x2f, 0xc6, 0x3d, 0xbe,
  0x3e, 0x02, 0x85, 0x3d, 0x07, 0x3e, 0x65, 0x3d, 0x64, 0xfa, 0x10, 0x3d,
  0x2d, 0x9e, 0xcc, 0x3d, 0x16, 0xd6, 0x22, 0xbe, 0xe1, 0x2d, 0xa7, 0xbd,
  0xa7, 0x52, 0x2f, 0xbe, 0x79, 0x2c, 0x85, 0x3e, 0xbf, 0xcd, 0xef, 0xbd,
  0x50, 0x09, 0xdc, 0xbd, 0xaa, 0xc4, 0x55, 0xbd, 0x1f, 0x47, 0xf8, 0xbd,
  0x98, 0xd1, 0xe0, 0xbd, 0xaa, 0x8e, 0xee, 0x3d, 0x7c, 0x4e, 0x4e, 0x3e,
  0xe3, 0x43, 0x7e, 0xbd, 0x02, 0x47, 0x54, 0xbe, 0xba, 0x89, 0x9b, 0x3d,
  0x67, 0xfc, 0x6b, 0x3a, 0x4a, 0x45, 0x8e, 0xbc, 0xdc, 0x12, 0xa9, 0xbc,
  0xc3, 0xf9, 0xfa, 0xbc, 0xc3, 0xde, 0xf8, 0xbc, 0x48, 0xe5, 0xf9, 0x3d,
  0x8b, 0x8f, 0x8c, 0xbd, 0xd0, 0x08, 0x16, 0x3e, 0xa3, 0x3b, 0x2d, 0xbe,
  0xdb, 0x25, 0x1e, 0xbe, 0x55, 0x8a, 0x74, 0x3a, 0x6f, 0x33, 0x81, 0x3d,
  0xe1, 0x06, 0x9c, 0xbd, 0x42, 0xc2, 0x84, 0x3e, 0x76, 0x60, 0x18, 0xbe,
  0x05, 0x9a, 0xbd, 0xbd, 0x88, 0x0a, 0x32, 0xbd, 0x9f, 0x89, 0x32, 0xbe,
  0x38, 0x9b, 0x61, 0x3e, 0x2f, 0xd2, 0x0b, 0xbe, 0xdf, 0x70, 0x29, 0xbd,
  0x09, 0x54, 0xfc, 0xbd, 0x36, 0x4a, 0x26, 0x3e, 0xe3, 0xe8, 0xf0, 0xbd,
  0xd2, 0x5f, 0xcb, 0xbc, 0x5b, 0x3e, 0xaf, 0xbd, 0xd7, 0x68, 0x0c, 0xbd,
  0x9b, 0x69, 0x32, 0x3d, 0x2e, 0x04, 0xbd, 0x3d, 0x80, 0x3f, 0xb8, 0x3d,
  0x9e, 0x74, 0xb6, 0xbc, 0x1b, 0xdd, 0xb6, 0x3c, 0x83, 0x73, 0x8a, 0x3d,
  0x88, 0xc2, 0x17, 0xbe, 0x90, 0x03, 0x5b, 0xbe, 0x29, 0xc7, 0x09, 0xbe,
  0x88, 0x95, 0x00, 0x3e, 0x8e, 0x97, 0xc7, 0xbd, 0xe5, 0xfc, 0x15, 0x3e,
  0xba, 0x5d, 0x0a, 0xbe, 0x02, 0x91, 0x6a, 0xbd, 0xce, 0xa9, 0xe3, 0xbd,
  0x1a, 0x52, 0x43, 0x3c, 0xc9, 0xb8, 0x58, 0xbc, 0x1c, 0xba, 0x2f, 0x3d,
  0x08, 0xf9, 0xfc, 0x3d, 0x63, 0x2b, 0x3b, 0xbe, 0x77, 0x11, 0x27, 0x3e,
  0xc4, 0xb6, 0xd3, 0x3d, 0x05, 0x50, 0x0e, 0xbe, 0xe2, 0xf5, 0x2b, 0x3e,
  0x51, 0xae, 0x6c, 0x3d, 0x0a, 0xb5, 0x08, 0xbe, 0x76, 0xe8, 0xc0, 0xbc,
  0xee, 0x15, 0x3a, 0xbd, 0x5d, 0x50, 0x39, 0xbe, 0xe6, 0x27, 0xb0, 0xbb,
  0x16, 0xcb, 0x13, 0x3e, 0xb0, 0xaf, 0x80, 0xbe, 0x36, 0x60, 0x1b, 0xbd,
  0x2a, 0xdc, 0xd2, 0xbd, 0x39, 0x51, 0x95, 0x3d, 0x9c, 0x81, 0xc0, 0xbd,
  0x5b, 0x13, 0x89, 0xbc, 0x93, 0x1c, 0xc0, 0xbd, 0x8d, 0x77, 0xa4, 0x3b,
  0x66, 0x39, 0xe5, 0x3d, 0xaa, 0x79, 0xcf, 0xbb, 0x51, 0xaa, 0xd2, 0xbd,
  0xb1, 0xb0, 0xe5, 0x3d, 0xfb, 0x2a, 0x5c, 0xbd, 0xba, 0xf8, 0xfa, 0xbd,
  0x45, 0x2c, 0x15, 0x3e, 0x14, 0x47, 0x39, 0x3d, 0x59, 0xcf, 0x96, 0x3d,
  0xc2, 0x64, 0x17, 0x3e, 0xff, 0xc1, 0x1a, 0x3e, 0x10, 0x35, 0x8f, 0x3d,
  0x5d, 0x1d, 0x04, 0x3e, 0xf8, 0xad, 0x84, 0x3e, 0xf5, 0xab, 0xcc, 0xbd,
  0xa5, 0xfe, 0x80, 0xbe, 0x1e, 0xfc, 0x3d, 0x3d, 0x4c, 0x29, 0xca, 0x3d,
  0xda, 0x94, 0x20, 0xbc, 0x00, 0x02, 0x5d, 0xbe, 0xe1, 0x40, 0xc6, 0x3d,
  0xb8, 0xc2, 0x0a, 0x3d, 0x60, 0x83, 0x67, 0xbe, 0xae, 0xc4, 0xf7, 0x3a,
  0x31, 0x7e, 0x46, 0x3e, 0x20, 0x0a, 0x14, 0xbe, 0x9f, 0xdb, 0x93, 0x3d,
  0xb4, 0xf1, 0x1e, 0xbb, 0xa5, 0x8f, 0xb4, 0x3d, 0x07, 0xfc, 0x6f, 0x3b,
  0xd8, 0xd6, 0xc8, 0x3d, 0xc8, 0xe0, 0x04, 0xbd, 0x6f, 0x5f, 0xb7, 0xbc,
  0x05, 0xe9, 0x82, 0x3c, 0xc2, 0x7e, 0xb9, 0xbd, 0x1b, 0x7b, 0xf4, 0x3d,
  0x2d, 0xd4, 0xf6, 0x3d, 0x2c, 0x90, 0x40, 0x3e, 0x8c, 0x67, 0x82, 0xbe,
  0xad, 0x6f, 0x4b, 0xbc, 0x15, 0x75, 0x2a, 0x3c, 0x36, 0x78, 0x8e, 0x3d,
  0xfe, 0x40, 0x10, 0xbe, 0xb0, 0xa6, 0x8e, 0x3d, 0x4b, 0x43, 0x20, 0x3e,
  0x4a, 0x06, 0xe9, 0x3d, 0xb4, 0x02, 0x4a, 0x3d, 0xc7, 0x91, 0xe8, 0xbd,
  0x16, 0x2c, 0x7e, 0xbd, 0x95, 0x85, 0x16, 0xbe, 0x3d, 0x20, 0x98, 0xbc,
  0xdd, 0x0f, 0x82, 0xbe, 0x32, 0x4b, 0x05, 0x3e, 0x60, 0x94, 0x93, 0xbd,
  0x9d, 0xbb, 0x06, 0xbe, 0x7e, 0x86, 0x4d, 0x3d, 0xfe, 0x77, 0x0d, 0xbe,
  0x9d, 0xee, 0xbb, 0x3d, 0x28, 0x45, 0xad, 0xbd, 0x4e, 0x3b, 0x51, 0xbe,
  0xd0, 0x32, 0xb0, 0x3d, 0x84, 0x5f, 0x3d, 0xbe, 0x77, 0x1b, 0xbf, 0xbc,
  0x3e, 0x92, 0x60, 0xbd, 0x19, 0xf0, 0x04, 0x3e, 0x37, 0x49, 0x20, 0xbe,
  0xe2, 0x44, 0xbc, 0x3d, 0xaf, 0x79, 0x8b, 0xbc, 0x2d, 0xed, 0x95, 0x3d,
  0x2d, 0xe2, 0x20, 0xbe, 0x74, 0x9c, 0x6b, 0xbe, 0xed, 0xda, 0x72, 0x3d,
  0xb4, 0x83, 0x5f, 0xbe, 0x15, 0xe8, 0x21, 0xbe, 0x8a, 0x88, 0x7f, 0xbd,
  0xc6, 0x1a, 0x69, 0xbe, 0xdb, 0x95, 0xc0, 0xbd, 0xa5, 0xb2, 0x4a, 0x3c,
  0xbc, 0x0f, 0xfc, 0xbd, 0xb9, 0xf9, 0x84, 0xbe, 0x3a, 0xfa, 0x38, 0xbe,
  0x80, 0x4c, 0xd2, 0xbd, 0x53, 0x9f, 0x64, 0xbd, 0xbd, 0xf8, 0x0c, 0x3d,
  0x20, 0xa7, 0xd8, 0x3d, 0x69, 0x1b, 0xbb, 0x3c, 0x7e, 0x5e, 0x96, 0x3d,
  0x4d, 0x03, 0xf7, 0x3c, 0x24, 0xb3, 0x17, 0xbd, 0xac, 0xe7, 0x24, 0x3e,
  0x00, 0xb9, 0x70, 0x3d, 0xdf, 0xde, 0x1d, 0xbe, 0xed, 0x41, 0x9f, 0xbd,
  0x58, 0xe6, 0xb1, 0xbd, 0xa6, 0x0d, 0x0d, 0x3d, 0xf1, 0x3b, 0x20, 0xbd,
  0x01, 0xaf, 0x93, 0xbd, 0x49, 0xfa, 0xa8, 0x3d, 0x00, 0x8c, 0x21, 0x3d,
  0x1a, 0x6c, 0xc8, 0x3b, 0xec, 0x0b, 0xe2, 0x3d, 0x28, 0x61, 0x1b, 0xbd,
  0xdc, 0x3c, 0xef, 0x3d, 0x92, 0x3b, 0xfc, 0xbd, 0x4c, 0xcf, 0x5e, 0x3e,
  0x91, 0x06, 0x77, 0xbe, 0x18, 0xae, 0xcf, 0xbd, 0xae, 0x01, 0xc2, 0xbd,
  0x44, 0x50, 0x04, 0xbd, 0x0e, 0xbb, 0x77, 0x3e, 0x40, 0x8f, 0xe2, 0x3d,
  0x35, 0x3d, 0x1b, 0xbe, 0xb9, 0x6b, 0x00, 0xbd, 0x41, 0xfb, 0x80, 0xbd,
  0xd0, 0x00, 0x10, 0xbd, 0x25, 0xd5, 0x81, 0x3c, 0x05, 0x0e, 0xc2, 0xbd,
  0xc6, 0x75, 0xe2, 0x3c, 0x01, 0xa3, 0xa8, 0xbd, 0x1b, 0x2a, 0x4c, 0xbe,
  0xb5, 0xc6, 0x2b, 0x3b, 0x1d, 0x4b, 0x06, 0xbe, 0xbf, 0x43, 0x3e, 0xbe,
  0x4c, 0x77, 0x57, 0xbe, 0x58, 0x38, 0x22, 0x3d, 0x4f, 0x46, 0x0b, 0xbe,
  0x18, 0x61, 0xd1, 0xbd, 0xbf, 0x6a, 0xfb, 0xbb, 0x3f, 0xf2, 0x49, 0x3e,
  0x22, 0x65, 0x4f, 0x3d, 0xa0, 0x5e, 0x30, 0xbd, 0x1f, 0xba, 0x87, 0xbd,
  0x4e, 0x76, 0xdf, 0xbc, 0xb9, 0x5f, 0xad, 0xbb, 0xfe, 0xca, 0x2e, 0xbe,
  0x3e, 0xf8, 0xff, 0xff, 0x04, 0x00, 0x00, 0x00, 0xc0, 0x06, 0x00, 0x00,
  0x7e, 0xec, 0x1d, 0x3f, 0xd8, 0x04, 0xa0, 0xbe, 0x2b, 0x87, 0x64, 0x3d,
  0x06, 0x36, 0xdc, 0x3d, 0x1b, 0xae, 0x87, 0xbe, 0x2c, 0x3e, 0xd5, 0x3d,
  0x13, 0x5c, 0xf3, 0xbe, 0x4c, 0x90, 0x93, 0xbe, 0xef, 0xa2, 0x0c, 0xbd,
  0x6e, 0xa9, 0x53, 0x3e, 0x1a, 0xc5, 0x84, 0xbe, 0x7f, 0x13, 0x6e, 0xbe,
  0x6f, 0x7c, 0x72, 0xbe, 0xb7, 0x77, 0x52, 0x3e, 0x96, 0x78, 0x5d, 0xbd,
  0x4c, 0x32, 0x13, 0x3f, 0x1f, 0x4e, 0xe5, 0xbd, 0x4d, 0xe7, 0x83, 0xbe,
  0x41, 0xfc, 0xa7, 0x3e, 0x6e, 0x65, 0xea, 0x3e, 0x01, 0xa7, 0xab, 0xbe,
  0xf8, 0x01, 0x6b, 0x3d, 0x4d, 0x6e, 0x62, 0xbd, 0x21, 0xe7, 0xbe, 0xbe,
  0xd1, 0xec, 0x97, 0xbe, 0xa3, 0x64, 0x6a, 0x3e, 0xe3, 0x9e, 0x9a, 0xbe,
  0xc5, 0xb6, 0x49, 0xbe, 0xe3, 0x48, 0x5b, 0x3e, 0x3a, 0x22, 0x7b, 0x3c,
  0x35, 0x11, 0x9f, 0x3d, 0x63, 0xfc, 0x90, 0x3c, 0x22, 0xda, 0x3b, 0x3c,
  0xe0, 0x63, 0x8d, 0xbe, 0xdb, 0xce, 0x9e, 0xbe, 0xf1, 0x44, 0x0f, 0xbe,
  0x84, 0x11, 0x4a, 0x3e, 0x60, 0xb3, 0x04, 0x3e, 0xeb, 0x84, 0x33, 0xbe,
  0x58, 0x0e, 0x64, 0xbe, 0x45, 0x22, 0xd9, 0xbb, 0x4a, 0xf2, 0x7f, 0xbe,
  0x3c, 0xa0, 0x82, 0xbd, 0xe5, 0xb9, 0x62, 0x3b, 0xf4, 0xcd, 0x02, 0xbf,
  0xe8, 0xc2, 0x06, 0x3f, 0xdf, 0x4a, 0x1c, 0xbe, 0xd7, 0xbb, 0x20, 0xbe,
  0x1a, 0x31, 0x48, 0xbe, 0xf3, 0xa8, 0xcc, 0xbe, 0xae, 0x56, 0xa2, 0xbd,
  0x39, 0x0d, 0x07, 0xbf, 0xcc, 0x6c, 0x27, 0xbe, 0x30, 0xa2, 0x72, 0xbc,
  0xcb, 0x90, 0x5a, 0x3e, 0x29, 0x15, 0xb8, 0x3e, 0xdf, 0x58, 0xc7, 0xbe,
  0x9d, 0x5c, 0x64, 0x3a, 0x76, 0xdc, 0x0a, 0x3e, 0x18, 0x41, 0xa7, 0x3e,
  0x8b, 0x65, 0xaf, 0x3e, 0x9b, 0xbe, 0xa5, 0x3e, 0xb1, 0x41, 0xd9, 0xbe,
  0x46, 0x6e, 0x6d, 0x3e, 0x11, 0x3c, 0x5c, 0xbe, 0xf0, 0x45, 0x6d, 0xbd,
  0x51, 0x6d, 0xfa, 0xbe, 0x64, 0xd3, 0x6b, 0x3e, 0x71, 0xe7, 0x15, 0xbe,
  0x08, 0xb4, 0xc4, 0x3e, 0x62, 0xf0, 0x1f, 0x3d, 0x46, 0x2e, 0x6e, 0x3e,
  0x0d, 0x6f, 0xee, 0x3e, 0x56, 0xc8, 0x74, 0xbe, 0x1e, 0x44, 0xc1, 0xbd,
  0x0c, 0xae, 0xef, 0xbe, 0xfb, 0x11, 0x94, 0x3d, 0x5d, 0xe9, 0xab, 0x3d,
  0xb4, 0x77, 0x38, 0x3d, 0x80, 0x0c, 0x33, 0x3d, 0x77, 0x62, 0x1b, 0x3e,
  0x55, 0xaf, 0xbb, 0xbe, 0x22, 0xf3, 0xbb, 0xbe, 0xc9, 0xd4, 0xce, 0xbe,
  0x67, 0x05, 0x73, 0x3d, 0x30, 0xa3, 0xd3, 0x3d, 0xaa, 0x35, 0xdb, 0xbd,
  0xab, 0xaa, 0xb5, 0x3d, 0x03, 0xfb, 0x2f, 0x3d, 0x57, 0x92, 0x0e, 0xbe,
  0xf3, 0x53, 0xc2, 0x3e, 0x44, 0x9b, 0x03, 0x3e, 0x07, 0x97, 0xd5, 0x3e,
  0x53, 0xf1, 0x93, 0xbe, 0x9b, 0x52, 0x64, 0xbe, 0xdc, 0x72, 0x94, 0xbe,
  0x11, 0xde, 0xa4, 0xbd, 0x7c, 0x3c, 0xbf, 0x3e, 0x67, 0xf7, 0xfb, 0x3d,
  0x85, 0x0d, 0xb7, 0xbe, 0x9c, 0xc4, 0x28, 0x3e, 0x5e, 0x0f, 0xda, 0xbe,
  0x78, 0x21, 0x29, 0x3e, 0x36, 0x85, 0xeb, 0xbe, 0xf8, 0xea, 0x91, 0xbd,
  0xf5, 0xa4, 0x66, 0xbe, 0xb0, 0x04, 0xb3, 0xbe, 0x60, 0x56, 0x08, 0x3d,
  0x4e, 0x85, 0x62, 0xbd, 0x13, 0xf4, 0x06, 0x3e, 0x0f, 0x8c, 0xb8, 0x3d,
  0x24, 0x0f, 0x5f, 0xbe, 0xc7, 0x18, 0xbf, 0xbd, 0x85, 0x66, 0x06, 0xbe,
  0xb2, 0xbf, 0x72, 0xbd, 0xbb, 0xcc, 0xf2, 0x3d, 0x84, 0x7f, 0xea, 0xbe,
  0x30, 0x90, 0xf7, 0xbc, 0x6d, 0xc6, 0x94, 0x3c, 0x4d, 0xa6, 0x49, 0xbe,
  0xa1, 0x0b, 0x0e, 0x3e, 0xbe, 0xc9, 0xcd, 0xbd, 0xf1, 0xef, 0xa1, 0xbd,
  0x54, 0x4b, 0x64, 0x3e, 0x06, 0x52, 0x4b, 0xbd, 0x4b, 0xa4, 0xa7, 0x3e,
  0x24, 0xaa, 0x01, 0xbe, 0x1e, 0x30, 0x5e, 0x3e, 0x90, 0xaa, 0x7e, 0x3e,
  0x63, 0xe0, 0x7d, 0x3d, 0x01, 0x0b, 0x1a, 0x3e, 0x57, 0x50, 0x02, 0xbf,
  0xef, 0x20, 0x97, 0xbe, 0x5e, 0x5e, 0xad, 0xbd, 0x1e, 0x3e, 0x0b, 0xbe,
  0xcc, 0x4e, 0xb0, 0x3e, 0xde, 0xd5, 0x06, 0x3e, 0x50, 0x20, 0xfd, 0x3d,
  0xdf, 0x5e, 0xed, 0x3c, 0x8f, 0xe0, 0xd2, 0x3e, 0x3e, 0xff, 0x01, 0x3f,
  0x96, 0x3c, 0x23, 0xbe, 0xb3, 0xa3, 0xf8, 0x3e, 0x1b, 0xa9, 0xb7, 0xbd,
  0x7f, 0xd8, 0x09, 0xbf, 0x6a, 0xeb, 0x28, 0xbe, 0xca, 0x2b, 0xbc, 0x3d,
  0xb4, 0x78, 0xa3, 0xbe, 0x15, 0x73, 0x10, 0xbd, 0xa1, 0x5e, 0x92, 0x3e,
  0x8b, 0x66, 0x35, 0xbe, 0xb1, 0xd4, 0xa1, 0x3d, 0x1e, 0x64, 0xcb, 0x3e,
  0xd0, 0x6f, 0x12, 0xbf, 0x05, 0xfe, 0x09, 0xbe, 0x49, 0xfa, 0x02, 0xbf,
  0x94, 0xc5, 0xb0, 0x3d, 0xf2, 0x0b, 0xc4, 0xbe, 0xd1, 0xf8, 0x03, 0x3e,
  0x9d, 0x9e, 0x75, 0xbc, 0x7d, 0x17, 0x8a, 0xbd, 0xfc, 0x69, 0x15, 0x3d,
  0x12, 0xab, 0xae, 0xbe, 0x68, 0x2c, 0xd3, 0x3e, 0x15, 0x09, 0x3e, 0x3e,
  0x0b, 0x8a, 0x71, 0xbe, 0x04, 0xc1, 0x9d, 0x3e, 0x28, 0xf2, 0xec, 0x3d,
  0xcd, 0xdb, 0x8f, 0x3e, 0x5b, 0xac, 0x22, 0x3e, 0x0a, 0x3a, 0x24, 0xbe,
  0xcc, 0xe1, 0x08, 0xbe, 0xba, 0x3b, 0xe7, 0x3e, 0x95, 0xad, 0x44, 0xbe,
  0xe7, 0xd7, 0x4a, 0x3d, 0x75, 0xd0, 0xed, 0xbd, 0x9a, 0xdd, 0x0a, 0x3d,
  0xd1, 0xc0, 0x0e, 0x3e, 0xfb, 0x89, 0xfe, 0x3d, 0x14, 0xed, 0x0c, 0x3d,
  0x39, 0x46, 0x60, 0x3e, 0x1b, 0x24, 0xc2, 0xbe, 0x2b, 0x8e, 0x4f, 0xbd,
  0xb7, 0x3f, 0xf6, 0x3e, 0xe2, 0xbe, 0xcf, 0xbe, 0xf7, 0xe2, 0x81, 0xbe,
  0x94, 0xe8, 0xb2, 0xbe, 0xda, 0x40, 0x0b, 0xbf, 0xb6, 0x73, 0x73, 0xbe,
  0x2b, 0x68, 0xcb, 0xbc, 0x3c, 0x4b, 0xb6, 0xbe, 0x40, 0x67, 0x81, 0xbd,
  0x9e, 0x23, 0x4f, 0x3e, 0xfa, 0x98, 0x98, 0x3e, 0x13, 0xda, 0xb4, 0x3e,
  0xdd, 0xf1, 0xb2, 0xbe, 0x10, 0xbf, 0x8b, 0x3d, 0x62, 0xd6, 0x03, 0x3f,
  0x64, 0x09, 0x20, 0x3e, 0x1c, 0xea, 0xf1, 0xbd, 0x79, 0x2f, 0xc9, 0x3d,
  0xc0, 0x03, 0x18, 0x3e, 0x30, 0xd6, 0xa2, 0xbd, 0xb5, 0xa2, 0x34, 0x3e,
  0x43, 0x29, 0xf5, 0x3e, 0x11, 0x23, 0xc1, 0xbe, 0x9a, 0x29, 0x00, 0x3f,
  0x61, 0xa7, 0x61, 0x3e, 0x4d, 0x0c, 0x9c, 0x3e, 0xdb, 0xd7, 0x46, 0xbe,
  0xe9, 0xe9, 0xcb, 0xbd, 0xf3, 0x6b, 0xbf, 0xbe, 0x9e, 0x1c, 0xe8, 0x3d,
  0xff, 0x7b, 0x2d, 0x3e, 0xa0, 0x32, 0xee, 0xbe, 0xdd, 0x87, 0x29, 0xbe,
  0xc8, 0x0c, 0xaa, 0xbe, 0x86, 0xea, 0xcf, 0x3d, 0xa7, 0x77, 0x16, 0xbe,
  0x61, 0x05, 0x10, 0xbe, 0x70, 0x1b, 0x00, 0xbf, 0x95, 0xc5, 0xa5, 0xbd,
  0xc1, 0x34, 0xd7, 0xbc, 0x7f, 0x4d, 0x17, 0xbe, 0xcb, 0x33, 0xb0, 0x3e,
  0x4f, 0xe9, 0x92, 0xbe, 0xe8, 0x36, 0xec, 0xbd, 0x1d, 0x6a, 0xd2, 0xbe,
  0x3c, 0xa5, 0x0b, 0xbe, 0xfa, 0x09, 0x04, 0x3f, 0xfb, 0x75, 0x8f, 0xbd,
  0x0f, 0x40, 0xe8, 0xbd, 0xa5, 0xc6, 0xdb, 0xbd, 0xb4, 0x1f, 0x9f, 0xbc,
  0x21, 0x18, 0x43, 0xbb, 0x7d, 0x62, 0x5a, 0xbe, 0x7b, 0xff, 0xdd, 0x3e,
  0xff, 0xeb, 0x17, 0xbf, 0x2d, 0x51, 0xb6, 0xbd, 0xc5, 0xf5, 0xc4, 0xbd,
  0xad, 0xed, 0xb7, 0x3d, 0x5b, 0x4f, 0xdd, 0x3e, 0xf2, 0xac, 0x4f, 0x3e,
  0x80, 0x46, 0x0b, 0xbe, 0xab, 0x91, 0xbf, 0xbe, 0xa4, 0x95, 0x8a, 0xbe,
  0x63, 0xf9, 0xbe, 0xbe, 0x2c, 0x9d, 0x05, 0xbf, 0x71, 0x1a, 0x40, 0xbd,
  0xfe, 0xbd, 0x08, 0xbe, 0xf7, 0xfd, 0x17, 0xbd, 0xce, 0x5f, 0x37, 0xbe,
  0x89, 0xd1, 0x51, 0x3e, 0x0e, 0xaa, 0x7d, 0x3d, 0x78, 0x1d, 0x1c, 0x3e,
  0x1e, 0x9c, 0xab, 0x3e, 0x38, 0x04, 0x7c, 0x3e, 0x26, 0x6a, 0x47, 0x3d,
  0x3e, 0x7e, 0x7a, 0xbd, 0xac, 0x3a, 0xea, 0x3d, 0xfe, 0x35, 0x87, 0xbe,
  0x0b, 0xf3, 0x71, 0xbd, 0xb9, 0xdd, 0x2c, 0xbe, 0x6d, 0xca, 0x0c, 0x3e,
  0x2d, 0xb6, 0x8e, 0x3d, 0x6d, 0x2a, 0x2e, 0xbe, 0x74, 0x12, 0x6f, 0xbe,
  0xd6, 0xa3, 0x4a, 0x3d, 0x32, 0xd6, 0x9a, 0x3e, 0xd4, 0xda, 0x35, 0xbb,
  0x8c, 0x54, 0x2d, 0x3e, 0xfa, 0xe5, 0xe4, 0xbe, 0xae, 0x04, 0x3d, 0xbe,
  0xbb, 0x23, 0x55, 0x3e, 0xc4, 0x4f, 0x01, 0xbe, 0x30, 0x47, 0x4f, 0x3d,
  0x41, 0x96, 0xca, 0xbd, 0x1f, 0x14, 0xd7, 0x3e, 0xd3, 0x31, 0x10, 0x3e,
  0xa2, 0x42, 0x84, 0xbe, 0x60, 0x71, 0x14, 0x3e, 0xe4, 0x53, 0x31, 0xbe,
  0x2c, 0x7c, 0x85, 0x3d, 0x16, 0xc2, 0x9a, 0xbe, 0xd5, 0xa8, 0x4a, 0xbe,
  0x05, 0x19, 0x02, 0x3e, 0x6f, 0xf4, 0x04, 0x3e, 0x3d, 0x9b, 0xcb, 0x3e,
  0x3f, 0xbf, 0xdf, 0xbd, 0xf6, 0xc6, 0x12, 0xbe, 0x2c, 0x22, 0xb6, 0xbe,
  0xec, 0xe2, 0xcc, 0x3d, 0x2d, 0x8a, 0x92, 0x3e, 0x0d, 0xdd, 0x07, 0xbf,
  0xe9, 0xa0, 0xab, 0xbd, 0x65, 0x41, 0x05, 0xbe, 0x26, 0x03, 0x51, 0x3e,
  0xb6, 0x1d, 0xa6, 0x3e, 0xf6, 0xd7, 0x90, 0x3e, 0xd7, 0x29, 0x48, 0xbe,
  0xe7, 0xec, 0x57, 0xbd, 0x7e, 0x6c, 0x16, 0x3f, 0xb9, 0x60, 0x9a, 0xbd,
  0xbb, 0x31, 0xfe, 0xbe, 0x81, 0x5a, 0x35, 0x3e, 0xd2, 0xc0, 0x8c, 0xbe,
  0x65, 0x15, 0xa4, 0x3d, 0xf5, 0x55, 0xd5, 0x3e, 0x07, 0x3e, 0xa8, 0xbe,
  0xf4, 0x55, 0x97, 0xbe, 0xec, 0x94, 0x0c, 0x3d, 0xb5, 0xc6, 0x23, 0x3e,
  0x68, 0xd9, 0xcb, 0x3e, 0x36, 0x01, 0xd8, 0x3d, 0xee, 0x32, 0xf4, 0xbd,
  0x91, 0x89, 0xc0, 0x3e, 0x45, 0xc9, 0x15, 0x3e, 0xd9, 0x28, 0x4d, 0xbe,
  0xa9, 0xdb, 0x50, 0xbd, 0x70, 0x28, 0x58, 0xbe, 0x41, 0x07, 0xe6, 0x3e,
  0xde, 0x15, 0xcd, 0x3d, 0xa1, 0xae, 0xc5, 0xbd, 0xe5, 0x40, 0x95, 0x39,
  0x6e, 0x27, 0x08, 0x3f, 0x61, 0x75, 0x12, 0x3f, 0x58, 0x28, 0x2b, 0x3e,
  0xa7, 0xc7, 0x01, 0xbf, 0xd7, 0xc3, 0x11, 0xbe, 0xe2, 0x4f, 0xc2, 0x3e,
  0x0d, 0xcf, 0xb3, 0x3e, 0x36, 0x2e, 0x1d, 0xbe, 0x4f, 0xce, 0xe0, 0x3e,
  0x7d, 0x6b, 0xd6, 0x3e, 0x90, 0xb1, 0x73, 0x3e, 0x50, 0x21, 0x87, 0x3e,
  0x31, 0x71, 0x72, 0x3d, 0xeb, 0xf9, 0x18, 0xbe, 0x2c, 0xbc, 0x29, 0xbd,
  0x5f, 0x08, 0xd7, 0xbd, 0xed, 0x20, 0x9c, 0xbe, 0x7a, 0x02, 0xfd, 0xbe,
  0x20, 0xec, 0xa5, 0x3e, 0x9f, 0x45, 0x2c, 0xbe, 0x9a, 0xb9, 0xcb, 0x3e,
  0xa9, 0x51, 0xb1, 0xbe, 0x7d, 0xe9, 0xab, 0xbc, 0x8a, 0x3f, 0x15, 0xbe,
  0xaa, 0xfc, 0x2a, 0xbd, 0x77, 0xc8, 0x9c, 0x3e, 0xe7, 0x84, 0xbf, 0xbe,
  0x9e, 0x98, 0x56, 0x3d, 0x82, 0x6b, 0x70, 0x3e, 0x7b, 0xfd, 0x32, 0xbe,
  0xc6, 0xcb, 0x75, 0xbe, 0x19, 0x54, 0xd5, 0xbe, 0xaf, 0xdb, 0x04, 0x3f,
  0xf0, 0xfc, 0x10, 0x3f, 0x3f, 0xfe, 0xa7, 0x3e, 0x4b, 0x1a, 0xef, 0xbe,
  0xbb, 0x05, 0xc3, 0xbd, 0x67, 0xf3, 0x02, 0xbe, 0x3f, 0x7b, 0x67, 0xbe,
  0x1c, 0x7c, 0x01, 0xbf, 0x7a, 0xbf, 0x61, 0x3e, 0x2e, 0xd1, 0x15, 0x3e,
  0x6f, 0xd5, 0x14, 0x3e, 0x3f, 0x3d, 0xb1, 0xbe, 0x4e, 0x7e, 0x9c, 0x3e,
  0xa5, 0x9e, 0x7a, 0x3e, 0xec, 0xc4, 0x59, 0x3e, 0x6f, 0x97, 0xcc, 0xbd,
  0x31, 0x60, 0x7f, 0xbe, 0x3c, 0x15, 0xe0, 0x3b, 0x1d, 0x4b, 0xb3, 0xbe,
  0x20, 0x5d, 0x4d, 0xbe, 0x1c, 0x41, 0x19, 0xbe, 0xa7, 0x49, 0x3d, 0xbe,
  0x14, 0xc4, 0x72, 0xbd, 0xb6, 0xa3, 0x3a, 0x3e, 0x68, 0xd2, 0x97, 0x3e,
  0x98, 0x11, 0x96, 0x3e, 0xe0, 0x8f, 0x94, 0xbe, 0xef, 0xab, 0xe4, 0x3e,
  0xe4, 0x1e, 0x8e, 0xbd, 0x65, 0x0d, 0x1a, 0x3f, 0xfd, 0xd2, 0xc9, 0xbe,
  0xc4, 0x10, 0x1a, 0xbe, 0xb2, 0xb1, 0x9e, 0x3e, 0x7b, 0x20, 0x10, 0xbe,
  0x1d, 0xfd, 0xaf, 0x3d, 0x30, 0xe1, 0x92, 0x3b, 0xe9, 0x2f, 0xaa, 0x3c,
  0x45, 0x09, 0x92, 0x3d, 0xbd, 0xec, 0xa8, 0xbe, 0x20, 0x75, 0x9f, 0xbe,
  0x91, 0xd4, 0x84, 0xbe, 0xbf, 0xca, 0xa2, 0xbe, 0x0a, 0x9b, 0xaa, 0x3b,
  0x18, 0x54, 0xcc, 0xbe, 0x64, 0x20, 0xa1, 0x3e, 0x8e, 0xd1, 0x4a, 0x3e,
  0x99, 0x13, 0xd3, 0xbe, 0x89, 0xb8, 0xc5, 0xbd, 0xfd, 0x34, 0xcf, 0xbe,
  0x80, 0x12, 0x06, 0x3e, 0x7d, 0x17, 0xa8, 0x3d, 0xc7, 0xca, 0xf7, 0xbd,
  0x11, 0x96, 0x84, 0x3d, 0x4f, 0x9f, 0x8b, 0xbb, 0x65, 0xfa, 0x91, 0x3d,
  0x70, 0xbf, 0x5e, 0x3d, 0x1f, 0x6d, 0x2c, 0xbe, 0x99, 0x2c, 0x81, 0x3e,
  0x2b, 0xf8, 0x14, 0x3d, 0xcc, 0xb1, 0x27, 0xbe, 0xe2, 0x91, 0xfe, 0xbe,
  0x75, 0x13, 0xd6, 0xbe, 0x65, 0x42, 0x96, 0xbd, 0x19, 0x57, 0x3f, 0x3d,
  0x0c, 0x65, 0x02, 0x3f, 0x66, 0x55, 0x0d, 0x3f, 0xc1, 0x3b, 0x6c, 0x3e,
  0xc1, 0x71, 0xd1, 0xbe, 0x11, 0x78, 0x41, 0x3c, 0xfe, 0xbb, 0x00, 0x3e,
  0x69, 0x29, 0x85, 0x3e, 0x9f, 0x21, 0x8a, 0x3e, 0xc5, 0xf2, 0x72, 0xbc,
  0xa1, 0x20, 0xf6, 0xbe, 0x42, 0xf3, 0x14, 0x3e, 0x1b, 0xe4, 0xe4, 0x3e,
  0x0a, 0xff, 0xff, 0xff, 0x04, 0x00, 0x00, 0x00, 0x14, 0x00, 0x00, 0x00,
  0x00, 0x00, 0x00, 0x00, 0x00, 0x00, 0x00, 0x00, 0x00, 0x00, 0x00, 0x00,
  0x00, 0x00, 0x00, 0x00, 0x00, 0x00, 0x00, 0x00, 0x2a, 0xff, 0xff, 0xff,
  0x04, 0x00, 0x00, 0x00, 0x40, 0x00, 0x00, 0x00, 0x00, 0x00, 0x00, 0x00,
  0x00, 0x00, 0x00, 0x00, 0x00, 0x00, 0x00, 0x00, 0x00, 0x00, 0x00, 0x00,
  0x00, 0x00, 0x00, 0x00, 0x00, 0x00, 0x00, 0x00, 0x00, 0x00, 0x00, 0x00,
  0x00, 0x00, 0x00, 0x00, 0x00, 0x00, 0x00, 0x00, 0x00, 0x00, 0x00, 0x00,
  0x00, 0x00, 0x00, 0x00, 0x00, 0x00, 0x00, 0x00, 0x00, 0x00, 0x00, 0x00,
  0x00, 0x00, 0x00, 0x00, 0x00, 0x00, 0x00, 0x00, 0x00, 0x00, 0x00, 0x00,
  0x5c, 0xf8, 0xff, 0xff, 0x60, 0xf8, 0xff, 0xff, 0x0f, 0x00, 0x00, 0x00,
  0x4d, 0x4c, 0x49, 0x52, 0x20, 0x43, 0x6f, 0x6e, 0x76, 0x65, 0x72, 0x74,
  0x65, 0x64, 0x2e, 0x00, 0x01, 0x00, 0x00, 0x00, 0x14, 0x00, 0x00, 0x00,
  0x00, 0x00, 0x0e, 0x00, 0x18, 0x00, 0x14, 0x00, 0x10, 0x00, 0x0c, 0x00,
  0x08, 0x00, 0x04, 0x00, 0x0e, 0x00, 0x00, 0x00, 0x14, 0x00, 0x00, 0x00,
  0x1c, 0x00, 0x00, 0x00, 0xa4, 0x01, 0x00, 0x00, 0xa8, 0x01, 0x00, 0x00,
  0xac, 0x01, 0x00, 0x00, 0x04, 0x00, 0x00, 0x00, 0x6d, 0x61, 0x69, 0x6e,
  0x00, 0x00, 0x00, 0x00, 0x05, 0x00, 0x00, 0x00, 0x40, 0x01, 0x00, 0x00,
  0xf0, 0x00, 0x00, 0x00, 0x9c, 0x00, 0x00, 0x00, 0x40, 0x00, 0x00, 0x00,
  0x04, 0x00, 0x00, 0x00, 0x7e, 0xff, 0xff, 0xff, 0x1c, 0x00, 0x00, 0x00,
  0x00, 0x00, 0x00, 0x09, 0x1c, 0x00, 0x00, 0x00, 0x20, 0x00, 0x00, 0x00,
  0x02, 0x00, 0x00, 0x00, 0x00, 0x00, 0x06, 0x00, 0x08, 0x00, 0x04, 0x00,
  0x06, 0x00, 0x00, 0x00, 0x00, 0x00, 0x80, 0x3f, 0x01, 0x00, 0x00, 0x00,
  0x0a, 0x00, 0x00, 0x00, 0x01, 0x00, 0x00, 0x00, 0x09, 0x00, 0x00, 0x00,
  0x1a, 0xff, 0xff, 0xff, 0x1c, 0x00, 0x00, 0x00, 0x00, 0x00, 0x00, 0x01,
  0x24, 0x00, 0x00, 0x00, 0x28, 0x00, 0x00, 0x00, 0x00, 0x00, 0x0a, 0x00,
  0x10, 0x00, 0x0f, 0x00, 0x08, 0x00, 0x04, 0x00, 0x0a, 0x00, 0x00, 0x00,
  0x01, 0x00, 0x00, 0x00, 0x01, 0x00, 0x00, 0x00, 0x00, 0x00, 0x00, 0x01,
  0x01, 0x00, 0x00, 0x00, 0x09, 0x00, 0x00, 0x00, 0x03, 0x00, 0x00, 0x00,
  0x08, 0x00, 0x00, 0x00, 0x05, 0x00, 0x00, 0x00, 0x02, 0x00, 0x00, 0x00,
  0x00, 0x00, 0x0e, 0x00, 0x1a, 0x00, 0x14, 0x00, 0x10, 0x00, 0x0c, 0x00,
  0x0b, 0x00, 0x04, 0x00, 0x0e, 0x00, 0x00, 0x00, 0x24, 0x00, 0x00, 0x00,
  0x00, 0x00, 0x00, 0x05, 0x34, 0x00, 0x00, 0x00, 0x38, 0x00, 0x00, 0x00,
  0x01, 0x00, 0x00, 0x00, 0x00, 0x00, 0x0e, 0x00, 0x18, 0x00, 0x17, 0x00,
  0x10, 0x00, 0x0c, 0x00, 0x08, 0x00, 0x04, 0x00, 0x0e, 0x00, 0x00, 0x00,
  0x02, 0x00, 0x00, 0x00, 0x02, 0x00, 0x00, 0x00, 0x02, 0x00, 0x00, 0x00,
  0x02, 0x00, 0x00, 0x00, 0x00, 0x00, 0x00, 0x01, 0x01, 0x00, 0x00, 0x00,
  0x08, 0x00, 0x00, 0x00, 0x01, 0x00, 0x00, 0x00, 0x07, 0x00, 0x00, 0x00,
  0xc2, 0xff, 0xff, 0xff, 0x10, 0x00, 0x00, 0x00, 0x00, 0x00, 0x00, 0x01,
  0x18, 0x00, 0x00, 0x00, 0x1c, 0x00, 0x00, 0x00, 0xb4, 0xff, 0xff, 0xff,
  0x00, 0x00, 0x00, 0x01, 0x01, 0x00, 0x00, 0x00, 0x01, 0x00, 0x00, 0x00,
  0x01, 0x00, 0x00, 0x00, 0x07, 0x00, 0x00, 0x00, 0x03, 0x00, 0x00, 0x00,
  0x06, 0x00, 0x00, 0x00, 0x04, 0x00, 0x00, 0x00, 0x01, 0x00, 0x00, 0x00,
  0x00, 0x00, 0x0e, 0x00, 0x14, 0x00, 0x00, 0x00, 0x10, 0x00, 0x0c, 0x00,
  0x0b, 0x00, 0x04, 0x00, 0x0e, 0x00, 0x00, 0x00, 0x1c, 0x00, 0x00, 0x00,
  0x00, 0x00, 0x00, 0x01, 0x24, 0x00, 0x00, 0x00, 0x28, 0x00, 0x00, 0x00,
  0x0c, 0x00, 0x10, 0x00, 0x00, 0x00, 0x0c, 0x00, 0x08, 0x00, 0x07, 0x00,
  0x0c, 0x00, 0x00, 0x00, 0x00, 0x00, 0x00, 0x01, 0x01, 0x00, 0x00, 0x00,
  0x01, 0x00, 0x00, 0x00, 0x01, 0x00, 0x00, 0x00, 0x06, 0x00, 0x00, 0x00,
  0x03, 0x00, 0x00, 0x00, 0x00, 0x00, 0x00, 0x00, 0x03, 0x00, 0x00, 0x00,
  0x01, 0x00, 0x00, 0x00, 0x01, 0x00, 0x00, 0x00, 0x0a, 0x00, 0x00, 0x00,
  0x01, 0x00, 0x00, 0x00, 0x00, 0x00, 0x00, 0x00, 0x0b, 0x00, 0x00, 0x00,
  0x7c, 0x05, 0x00, 0x00, 0xfc, 0x04, 0x00, 0x00, 0x90, 0x04, 0x00, 0x00,
  0x44, 0x04, 0x00, 0x00, 0xf4, 0x03, 0x00, 0x00, 0xa4, 0x03, 0x00, 0x00,
  0x80, 0x02, 0x00, 0x00, 0x80, 0x01, 0x00, 0x00, 0x14, 0x01, 0x00, 0x00,
  0x70, 0x00, 0x00, 0x00, 0x04, 0x00, 0x00, 0x00, 0xc6, 0xfa, 0xff, 0xff,
  0x00, 0x00, 0x00, 0x01, 0x14, 0x00, 0x00, 0x00, 0x24, 0x00, 0x00, 0x00,
  0x24, 0x00, 0x00, 0x00, 0x0b, 0x00, 0x00, 0x00, 0x3c, 0x00, 0x00, 0x00,
  0x04, 0x00, 0x00, 0x00, 0xff, 0xff, 0xff, 0xff, 0x30, 0x00, 0x00, 0x00,
  0x30, 0x00, 0x00, 0x00, 0x05, 0x00, 0x00, 0x00, 0xb0, 0xfa, 0xff, 0xff,
  0x19, 0x00, 0x00, 0x00, 0x53, 0x74, 0x61, 0x74, 0x65, 0x66, 0x75, 0x6c,
  0x50, 0x61, 0x72, 0x74, 0x69, 0x74, 0x69, 0x6f, 0x6e, 0x65, 0x64, 0x43,
  0x61, 0x6c, 0x6c, 0x3a, 0x30, 0x00, 0x00, 0x00, 0x04, 0x00, 0x00, 0x00,
  0x01, 0x00, 0x00, 0x00, 0x30, 0x00, 0x00, 0x00, 0x30, 0x00, 0x00, 0x00,
  0x05, 0x00, 0x00, 0x00, 0x2e, 0xfb, 0xff, 0xff, 0x00, 0x00, 0x00, 0x01,
  0x14, 0x00, 0x00, 0x00, 0x24, 0x00, 0x00, 0x00, 0x24, 0x00, 0x00, 0x00,
  0x0a, 0x00, 0x00, 0x00, 0x74, 0x00, 0x00, 0x00, 0x04, 0x00, 0x00, 0x00,
  0xff, 0xff, 0xff, 0xff, 0x30, 0x00, 0x00, 0x00, 0x30, 0x00, 0x00, 0x00,
  0x05, 0x00, 0x00, 0x00, 0x18, 0xfb, 0xff, 0xff, 0x52, 0x00, 0x00, 0x00,
  0x6d, 0x6f, 0x64, 0x65, 0x6c, 0x2f, 0x63, 0x6f, 0x6e, 0x76, 0x32, 0x64,
  0x5f, 0x32, 0x2f, 0x42, 0x69, 0x61, 0x73, 0x41, 0x64, 0x64, 0x3b, 0x6d,
  0x6f, 0x64, 0x65, 0x6c, 0x2f, 0x63, 0x6f, 0x6e, 0x76, 0x32, 0x64, 0x5f,
  0x32, 0x2f, 0x42, 0x69, 0x61, 0x73, 0x41, 0x64, 0x64, 0x2f, 0x52, 0x65,
  0x61, 0x64, 0x56, 0x61, 0x72, 0x69, 0x61, 0x62, 0x6c, 0x65, 0x4f, 0x70,
  0x3b, 0x6d, 0x6f, 0x64, 0x65, 0x6c, 0x2f, 0x63, 0x6f, 0x6e, 0x76, 0x32,
  0x64, 0x5f, 0x32, 0x2f, 0x43, 0x6f, 0x6e, 0x76, 0x32, 0x44, 0x00, 0x00,
  0x04, 0x00, 0x00, 0x00, 0x01, 0x00, 0x00, 0x00, 0x30, 0x00, 0x00, 0x00,
  0x30, 0x00, 0x00, 0x00, 0x05, 0x00, 0x00, 0x00, 0xce, 0xfb, 0xff, 0xff,
  0x00, 0x00, 0x00, 0x01, 0x14, 0x00, 0x00, 0x00, 0x24, 0x00, 0x00, 0x00,
  0x24, 0x00, 0x00, 0x00, 0x09, 0x00, 0x00, 0x00, 0x3c, 0x00, 0x00, 0x00,
  0x04, 0x00, 0x00, 0x00, 0xff, 0xff, 0xff, 0xff, 0x30, 0x00, 0x00, 0x00,
  0x30, 0x00, 0x00, 0x00, 0x10, 0x00, 0x00, 0x00, 0xb8, 0xfb, 0xff, 0xff,
  0x1b, 0x00, 0x00, 0x00, 0x6d, 0x6f, 0x64, 0x65, 0x6c, 0x2f, 0x6d, 0x61,
  0x78, 0x5f, 0x70, 0x6f, 0x6f, 0x6c, 0x69, 0x6e, 0x67, 0x32, 0x64, 0x2f,
  0x4d, 0x61, 0x78, 0x50, 0x6f, 0x6f, 0x6c, 0x00, 0x04, 0x00, 0x00, 0x00,
  0x01, 0x00, 0x00, 0x00, 0x30, 0x00, 0x00, 0x00, 0x30, 0x00, 0x00, 0x00,
  0x10, 0x00, 0x00, 0x00, 0x36, 0xfc, 0xff, 0xff, 0x00, 0x00, 0x00, 0x01,
  0x14, 0x00, 0x00, 0x00, 0x24, 0x00, 0x00, 0x00, 0x24, 0x00, 0x00, 0x00,
  0x08, 0x00, 0x00, 0x00, 0xd0, 0x00, 0x00, 0x00, 0x04, 0x00, 0x00, 0x00,
  0xff, 0xff, 0xff, 0xff, 0x60, 0x00, 0x00, 0x00, 0x60, 0x00, 0x00, 0x00,
  0x10, 0x00, 0x00, 0x00, 0x20, 0xfc, 0xff, 0xff, 0xad, 0x00, 0x00, 0x00,
  0x6d, 0x6f, 0x64, 0x65, 0x6c, 0x2f, 0x61, 0x63, 0x74, 0x69, 0x76, 0x61,
  0x74, 0x69, 0x6f, 0x6e, 0x5f, 0x31, 0x2f, 0x52, 0x65, 0x6c, 0x75, 0x3b,
  0x6d, 0x6f, 0x64, 0x65, 0x6c, 0x2f, 0x62, 0x61, 0x74, 0x63, 0x68, 0x5f,
  0x6e, 0x6f, 0x72, 0x6d, 0x61, 0x6c, 0x69, 0x7a, 0x61, 0x74, 0x69, 0x6f,
  0x6e, 0x5f, 0x31, 0x2f, 0x46, 0x75, 0x73, 0x65, 0x64, 0x42, 0x61, 0x74,
  0x63, 0x68, 0x4e, 0x6f, 0x72, 0x6d, 0x56, 0x33, 0x3b, 0x6d, 0x6f, 0x64,
  0x65, 0x6c, 0x2f, 0x62, 0x61, 0x74, 0x63, 0x68, 0x5f, 0x6e, 0x6f, 0x72,
  0x6d, 0x61, 0x6c, 0x69, 0x7a, 0x61, 0x74, 0x69, 0x6f, 0x6e, 0x5f, 0x31,
  0x2f, 0x46, 0x75, 0x73, 0x65, 0x64, 0x42, 0x61, 0x74, 0x63, 0x68, 0x4e,
  0x6f, 0x72, 0x6d, 0x56, 0x33, 0x2f, 0x52, 0x65, 0x61, 0x64, 0x56, 0x61,
  0x72, 0x69, 0x61, 0x62, 0x6c, 0x65, 0x4f, 0x70, 0x3b, 0x6d, 0x6f, 0x64,
  0x65, 0x6c, 0x2f, 0x63, 0x6f, 0x6e, 0x76, 0x32, 0x64, 0x5f, 0x31, 0x2f,
  0x42, 0x69, 0x61, 0x73, 0x41, 0x64, 0x64, 0x3b, 0x6d, 0x6f, 0x64, 0x65,
  0x6c, 0x2f, 0x63, 0x6f, 0x6e, 0x76, 0x32, 0x64, 0x5f, 0x31, 0x2f, 0x43,
  0x6f, 0x6e, 0x76, 0x32, 0x44, 0x00, 0x00, 0x00, 0x04, 0x00, 0x00, 0x00,
  0x01, 0x00, 0x00, 0x00, 0x60, 0x00, 0x00, 0x00, 0x60, 0x00, 0x00, 0x00,
  0x10, 0x00, 0x00, 0x00, 0x32, 0xfd, 0xff, 0xff, 0x00, 0x00, 0x00, 0x01,
  0x14, 0x00, 0x00, 0x00, 0x24, 0x00, 0x00, 0x00, 0x24, 0x00, 0x00, 0x00,
  0x07, 0x00, 0x00, 0x00, 0xf4, 0x00, 0x00, 0x00, 0x04, 0x00, 0x00, 0x00,
  0xff, 0xff, 0xff, 0xff, 0x60, 0x00, 0x00, 0x00, 0x60, 0x00, 0x00, 0x00,
  0x10, 0x00, 0x00, 0x00, 0x1c, 0xfd, 0xff, 0xff, 0xd2, 0x00, 0x00, 0x00,
  0x6d, 0x6f, 0x64, 0x65, 0x6c, 0x2f, 0x61, 0x63, 0x74, 0x69, 0x76, 0x61,
  0x74, 0x69, 0x6f, 0x6e, 0x2f, 0x52, 0x65, 0x6c, 0x75, 0x3b, 0x6d, 0x6f,
  0x64, 0x65, 0x6c, 0x2f, 0x62, 0x61, 0x74, 0x63, 0x68, 0x5f, 0x6e, 0x6f,
  0x72, 0x6d, 0x61, 0x6c, 0x69, 0x7a, 0x61, 0x74, 0x69, 0x6f, 0x6e, 0x2f,
  0x46, 0x75, 0x73, 0x65, 0x64, 0x42, 0x61, 0x74, 0x63, 0x68, 0x4e, 0x6f,
  0x72, 0x6d, 0x56, 0x33, 0x3b, 0x6d, 0x6f, 0x64, 0x65, 0x6c, 0x2f, 0x62,
  0x61, 0x74, 0x63, 0x68, 0x5f, 0x6e, 0x6f, 0x72, 0x6d, 0x61, 0x6c, 0x69,
  0x7a, 0x61, 0x74, 0x69, 0x6f, 0x6e, 0x5f, 0x31, 0x2f, 0x46, 0x75, 0x73,
  0x65, 0x64, 0x42, 0x61, 0x74, 0x63, 0x68, 0x4e, 0x6f, 0x72, 0x6d, 0x56,
  0x33, 0x2f, 0x52, 0x65, 0x61, 0x64, 0x56, 0x61, 0x72, 0x69, 0x61, 0x62,
  0x6c, 0x65, 0x4f, 0x70, 0x3b, 0x6d, 0x6f, 0x64, 0x65, 0x6c, 0x2f, 0x63,
  0x6f, 0x6e, 0x76, 0x32, 0x64, 0x2f, 0x42, 0x69, 0x61, 0x73, 0x41, 0x64,
  0x64, 0x3b, 0x6d, 0x6f, 0x64, 0x65, 0x6c, 0x2f, 0x62, 0x61, 0x74, 0x63,
  0x68, 0x5f, 0x6e, 0x6f, 0x72, 0x6d, 0x61, 0x6c, 0x69, 0x7a, 0x61, 0x74,
  0x69, 0x6f, 0x6e, 0x5f, 0x31, 0x2f, 0x46, 0x75, 0x73, 0x65, 0x64, 0x42,
  0x61, 0x74, 0x63, 0x68, 0x4e, 0x6f, 0x72, 0x6d, 0x56, 0x33, 0x3b, 0x6d,
  0x6f, 0x64, 0x65, 0x6c, 0x2f, 0x63, 0x6f, 0x6e, 0x76, 0x32, 0x64, 0x2f,
  0x43, 0x6f, 0x6e, 0x76, 0x32, 0x44, 0x00, 0x00, 0x04, 0x00, 0x00, 0x00,
  0x01, 0x00, 0x00, 0x00, 0x60, 0x00, 0x00, 0x00, 0x60, 0x00, 0x00, 0x00,
  0x10, 0x00, 0x00, 0x00, 0xce, 0xfe, 0xff, 0xff, 0x00, 0x00, 0x00, 0x01,
  0x10, 0x00, 0x00, 0x00, 0x10, 0x00, 0x00, 0x00, 0x06, 0x00, 0x00, 0x00,
  0x24, 0x00, 0x00, 0x00, 0x24, 0xfe, 0xff, 0xff, 0x15, 0x00, 0x00, 0x00,
  0x6d, 0x6f, 0x64, 0x65, 0x6c, 0x2f, 0x63, 0x6f, 0x6e, 0x76, 0x32, 0x64,
  0x5f, 0x32, 0x2f, 0x43, 0x6f, 0x6e, 0x76, 0x32, 0x44, 0x00, 0x00, 0x00,
  0x04, 0x00, 0x00, 0x00, 0x05, 0x00, 0x00, 0x00, 0x01, 0x00, 0x00, 0x00,
  0x01, 0x00, 0x00, 0x00, 0x10, 0x00, 0x00, 0x00, 0x1a, 0xff, 0xff, 0xff,
  0x00, 0x00, 0x00, 0x01, 0x10, 0x00, 0x00, 0x00, 0x10, 0x00, 0x00, 0x00,
  0x05, 0x00, 0x00, 0x00, 0x24, 0x00, 0x00, 0x00, 0x70, 0xfe, 0xff, 0xff,
  0x15, 0x00, 0x00, 0x00, 0x6d, 0x6f, 0x64, 0x65, 0x6c, 0x2f, 0x63, 0x6f,
  0x6e, 0x76, 0x32, 0x64, 0x5f, 0x31, 0x2f, 0x43, 0x6f, 0x6e, 0x76, 0x32,
  0x44, 0x00, 0x00, 0x00, 0x04, 0x00, 0x00, 0x00, 0x10, 0x00, 0x00, 0x00,
  0x03, 0x00, 0x00, 0x00, 0x03, 0x00, 0x00, 0x00, 0x10, 0x00, 0x00, 0x00,
  0x66, 0xff, 0xff, 0xff, 0x00, 0x00, 0x00, 0x01, 0x10, 0x00, 0x00, 0x00,
  0x10, 0x00, 0x00, 0x00, 0x04, 0x00, 0x00, 0x00, 0x20, 0x00, 0x00, 0x00,
  0xbc, 0xfe, 0xff, 0xff, 0x13, 0x00, 0x00, 0x00, 0x6d, 0x6f, 0x64, 0x65,
  0x6c, 0x2f, 0x63, 0x6f, 0x6e, 0x76, 0x32, 0x64, 0x2f, 0x43, 0x6f, 0x6e,
  0x76, 0x32, 0x44, 0x00, 0x04, 0x00, 0x00, 0x00, 0x10, 0x00, 0x00, 0x00,
  0x03, 0x00, 0x00, 0x00, 0x03, 0x00, 0x00, 0x00, 0x03, 0x00, 0x00, 0x00,
  0xae, 0xff, 0xff, 0xff, 0x00, 0x00, 0x00, 0x01, 0x10, 0x00, 0x00, 0x00,
  0x10, 0x00, 0x00, 0x00, 0x03, 0x00, 0x00, 0x00, 0x34, 0x00, 0x00, 0x00,
  0x04, 0xff, 0xff, 0xff, 0x25, 0x00, 0x00, 0x00, 0x6d, 0x6f, 0x64, 0x65,
  0x6c, 0x2f, 0x63, 0x6f, 0x6e, 0x76, 0x32, 0x64, 0x5f, 0x32, 0x2f, 0x42,
  0x69, 0x61, 0x73, 0x41, 0x64, 0x64, 0x2f, 0x52, 0x65, 0x61, 0x64, 0x56,
  0x61, 0x72, 0x69, 0x61, 0x62, 0x6c, 0x65, 0x4f, 0x70, 0x00, 0x00, 0x00,
  0x01, 0x00, 0x00, 0x00, 0x05, 0x00, 0x00, 0x00, 0x00, 0x00, 0x16, 0x00,
  0x18, 0x00, 0x14, 0x00, 0x00, 0x00, 0x10, 0x00, 0x0c, 0x00, 0x08, 0x00,
  0x00, 0x00, 0x00, 0x00, 0x00, 0x00, 0x07, 0x00, 0x16, 0x00, 0x00, 0x00,
  0x00, 0x00, 0x00, 0x01, 0x10, 0x00, 0x00, 0x00, 0x10, 0x00, 0x00, 0x00,
  0x02, 0x00, 0x00, 0x00, 0x48, 0x00, 0x00, 0x00, 0x6c, 0xff, 0xff, 0xff,
  0x3b, 0x00, 0x00, 0x00, 0x6d, 0x6f, 0x64, 0x65, 0x6c, 0x2f, 0x62, 0x61,
  0x74, 0x63, 0x68, 0x5f, 0x6e, 0x6f, 0x72, 0x6d, 0x61, 0x6c, 0x69, 0x7a,
  0x61, 0x74, 0x69, 0x6f, 0x6e, 0x5f, 0x31, 0x2f, 0x46, 0x75, 0x73, 0x65,
  0x64, 0x42, 0x61, 0x74, 0x63, 0x68, 0x4e, 0x6f, 0x72, 0x6d, 0x56, 0x33,
  0x2f, 0x52, 0x65, 0x61, 0x64, 0x56, 0x61, 0x72, 0x69, 0x61, 0x62, 0x6c,
  0x65, 0x4f, 0x70, 0x00, 0x01, 0x00, 0x00, 0x00, 0x10, 0x00, 0x00, 0x00,
  0x00, 0x00, 0x16, 0x00, 0x1c, 0x00, 0x18, 0x00, 0x00, 0x00, 0x14, 0x00,
  0x10, 0x00, 0x0c, 0x00, 0x00, 0x00, 0x00, 0x00, 0x08, 0x00, 0x07, 0x00,
  0x16, 0x00, 0x00, 0x00, 0x00, 0x00, 0x00, 0x01, 0x14, 0x00, 0x00, 0x00,
  0x28, 0x00, 0x00, 0x00, 0x28, 0x00, 0x00, 0x00, 0x01, 0x00, 0x00, 0x00,
  0x3c, 0x00, 0x00, 0x00, 0x04, 0x00, 0x00, 0x00, 0xff, 0xff, 0xff, 0xff,
  0x60, 0x00, 0x00, 0x00, 0x60, 0x00, 0x00, 0x00, 0x03, 0x00, 0x00, 0x00,
  0x04, 0x00, 0x04, 0x00, 0x04, 0x00, 0x00, 0x00, 0x15, 0x00, 0x00, 0x00,
  0x73, 0x65, 0x72, 0x76, 0x69, 0x6e, 0x67, 0x5f, 0x64, 0x65, 0x66, 0x61,
  0x75, 0x6c, 0x74, 0x5f, 0x69, 0x6d, 0x67, 0x3a, 0x30, 0x00, 0x00, 0x00,
  0x04, 0x00, 0x00, 0x00, 0x01, 0x00, 0x00, 0x00, 0x60, 0x00, 0x00, 0x00,
  0x60, 0x00, 0x00, 0x00, 0x03, 0x00, 0x00, 0x00, 0x03, 0x00, 0x00, 0x00,
  0x30, 0x00, 0x00, 0x00, 0x14, 0x00, 0x00, 0x00, 0x04, 0x00, 0x00, 0x00,
  0xe8, 0xff, 0xff, 0xff, 0x19, 0x00, 0x00, 0x00, 0x00, 0x00, 0x00, 0x19,
  0xf4, 0xff, 0xff, 0xff, 0x11, 0x00, 0x00, 0x00, 0x00, 0x00, 0x00, 0x11,
  0x0c, 0x00, 0x0c, 0x00, 0x0b, 0x00, 0x00, 0x00, 0x00, 0x00, 0x04, 0x00,
  0x0c, 0x00, 0x00, 0x00, 0x03, 0x00, 0x00, 0x00, 0x00, 0x00, 0x00, 0x03
};
unsigned int model_tflite_len = 13956;
